{
  "version": "1.0",
  "truncation": {
    "direction": "Right",
    "max_length": 256,
    "strategy": "LongestFirst",
    "stride": 0
  },
  "padding": null,
  "added_tokens": [
    {
      "id": 0,
      "content": "<pad>",
      "single_word": false,
      "lstrip": false,
      "rstrip": false,
      "normalized": false,
      "special": true
    },
    {
      "id": 1,
      "content": "<unk>",
      "single_word": false,
      "lstrip": false,
      "rstrip": false,
      "normalized": false,
      "special": true
    },
    {
      "id": 2,
      "content": "<bos>",
      "single_word": false,
      "lstrip": false,
      "rstrip": false,
      "normalized": false,
      "special": true
    },
    {
      "id": 3,
      "content": "<eos>",
      "single_word": false,
      "lstrip": false,
      "rstrip": false,
      "normalized": false,
      "special": true
    }
  ],
  "normalizer": {
    "type": "NFKC"
  },
  "pre_tokenizer": {
    "type": "Whitespace"
  },
  "post_processor": {
    "type": "TemplateProcessing",
    "single": [
      {
        "SpecialToken": {
          "id": "<bos>",
          "type_id": 0
        }
      },
      {
        "Sequence": {
          "id": "A",
          "type_id": 0
        }
      },
      {
        "SpecialToken": {
          "id": "<eos>",
          "type_id": 0
        }
      }
    ],
    "pair": [
      {
        "SpecialToken": {
          "id": "<bos>",
          "type_id": 0
        }
      },
      {
        "Sequence": {
          "id": "A",
          "type_id": 0
        }
      },
      {
        "SpecialToken": {
          "id": "<eos>",
          "type_id": 0
        }
      },
      {
        "Sequence": {
          "id": "B",
          "type_id": 1
        }
      },
      {
        "SpecialToken": {
          "id": "<eos>",
          "type_id": 1
        }
      }
    ],
    "special_tokens": {
      "<bos>": {
        "id": "<bos>",
        "ids": [
          2
        ],
        "tokens": [
          "<bos>"
        ]
      },
      "<eos>": {
        "id": "<eos>",
        "ids": [
          3
        ],
        "tokens": [
          "<eos>"
        ]
      }
    }
  },
  "decoder": null,
  "model": {
    "type": "BPE",
    "dropout": null,
    "unk_token": "<unk>",
    "continuing_subword_prefix": null,
    "end_of_word_suffix": null,
    "fuse_unk": false,
    "byte_fallback": false,
    "ignore_merges": false,
    "vocab": {
      "<pad>": 0,
      "<unk>": 1,
      "<bos>": 2,
      "<eos>": 3,
      "!": 4,
      "\"": 5,
      "#": 6,
      "$": 7,
      "&": 8,
      "'": 9,
      "(": 10,
      ")": 11,
      "*": 12,
      ",": 13,
      "-": 14,
      ".": 15,
      "/": 16,
      "0": 17,
      "1": 18,
      "2": 19,
      "3": 20,
      "4": 21,
      "5": 22,
      "6": 23,
      "7": 24,
      "8": 25,
      "9": 26,
      ":": 27,
      ";": 28,
      "=": 29,
      "?": 30,
      "A": 31,
      "B": 32,
      "C": 33,
      "D": 34,
      "E": 35,
      "F": 36,
      "G": 37,
      "H": 38,
      "I": 39,
      "J": 40,
      "K": 41,
      "L": 42,
      "M": 43,
      "N": 44,
      "O": 45,
      "P": 46,
      "Q": 47,
      "R": 48,
      "S": 49,
      "T": 50,
      "U": 51,
      "V": 52,
      "W": 53,
      "X": 54,
      "Y": 55,
      "Z": 56,
      "\\": 57,
      "_": 58,
      "a": 59,
      "b": 60,
      "c": 61,
      "d": 62,
      "e": 63,
      "f": 64,
      "g": 65,
      "h": 66,
      "i": 67,
      "j": 68,
      "k": 69,
      "l": 70,
      "m": 71,
      "n": 72,
      "o": 73,
      "p": 74,
      "q": 75,
      "r": 76,
      "s": 77,
      "t": 78,
      "u": 79,
      "v": 80,
      "w": 81,
      "x": 82,
      "y": 83,
      "z": 84,
      "in": 85,
      "er": 86,
      "th": 87,
      "an": 88,
      "on": 89,
      "es": 90,
      "or": 91,
      "ar": 92,
      "ed": 93,
      "the": 94,
      "en": 95,
      "at": 96,
      "al": 97,
      "to": 98,
      "st": 99,
      "ing": 100,
      "it": 101,
      "of": 102,
      "re": 103,
      "ic": 104,
      "as": 105,
      "ou": 106,
      "is": 107,
      "ay": 108,
      "il": 109,
      "ro": 110,
      "and": 111,
      "ion": 112,
      "le": 113,
      "ter": 114,
      "id": 115,
      "ac": 116,
      "el": 117,
      "om": 118,
      "for": 119,
      "ent": 120,
      "ad": 121,
      "ch": 122,
      "et": 123,
      "ur": 124,
      "am": 125,
      "ol": 126,
      "day": 127,
      "ig": 128,
      "ec": 129,
      "ir": 130,
      "he": 131,
      "ers": 132,
      "ot": 133,
      "us": 134,
      "un": 135,
      "39": 136,
      "ag": 137,
      "ve": 138,
      "ill": 139,
      "ow": 140,
      "est": 141,
      "ra": 142,
      "im": 143,
      "ut": 144,
      "ver": 145,
      "ear": 146,
      "ation": 147,
      "com": 148,
      "all": 149,
      "se": 150,
      "pl": 151,
      "be": 152,
      "qu": 153,
      "op": 154,
      "ith": 155,
      "In": 156,
      "ew": 157,
      "ri": 158,
      "em": 159,
      "ce": 160,
      "ak": 161,
      "igh": 162,
      "ul": 163,
      "ts": 164,
      "ap": 165,
      "that": 166,
      "with": 167,
      "The": 168,
      "ex": 169,
      "its": 170,
      "res": 171,
      "oun": 172,
      "up": 173,
      "pro": 174,
      "de": 175,
      "Re": 176,
      "ters": 177,
      "ly": 178,
      "sh": 179,
      "con": 180,
      "ist": 181,
      "sa": 182,
      "lo": 183,
      "ast": 184,
      "ain": 185,
      "ld": 186,
      "ab": 187,
      "wh": 188,
      "ks": 189,
      "over": 190,
      "are": 191,
      "ian": 192,
      "by": 193,
      "00": 194,
      "ate": 195,
      "uters": 196,
      "said": 197,
      "um": 198,
      "por": 199,
      "our": 200,
      "St": 201,
      "has": 202,
      "out": 203,
      "ies": 204,
      "end": 205,
      "ess": 206,
      "ia": 207,
      "rom": 208,
      "ct": 209,
      "ost": 210,
      "ight": 211,
      "Ch": 212,
      "pr": 213,
      "ack": 214,
      "AP": 215,
      "wor": 216,
      "Reuters": 217,
      "off": 218,
      "comp": 219,
      "from": 220,
      "af": 221,
      "os": 222,
      "we": 223,
      "pe": 224,
      "art": 225,
      "ity": 226,
      "tr": 227,
      "ment": 228,
      "ard": 229,
      "his": 230,
      "if": 231,
      "ore": 232,
      "ha": 233,
      "ust": 234,
      "man": 235,
      "US": 236,
      "..": 237,
      "esday": 238,
      "ine": 239,
      "od": 240,
      "one": 241,
      "iv": 242,
      "ial": 243,
      "ive": 244,
      "ther": 245,
      "was": 246,
      "ell": 247,
      "te": 248,
      "will": 249,
      "ke": 250,
      "ted": 251,
      "new": 252,
      "sp": 253,
      "ip": 254,
      "tw": 255,
      "year": 256,
      "su": 257,
      "lt": 258,
      "fir": 259,
      "gt": 260,
      "Th": 261,
      "ge": 262,
      "after": 263,
      "mer": 264,
      "la": 265,
      "ice": 266,
      "per": 267,
      "ud": 268,
      "Fr": 269,
      "ace": 270,
      "ould": 271,
      "gh": 272,
      "quot": 273,
      "old": 274,
      "ans": 275,
      "ord": 276,
      "ie": 277,
      "oc": 278,
      "sec": 279,
      "ning": 280,
      "\\$": 281,
      "have": 282,
      "ong": 283,
      "ind": 284,
      "ant": 285,
      "ound": 286,
      "ick": 287,
      "ere": 288,
      "arg": 289,
      "illion": 290,
      "ser": 291,
      "own": 292,
      "og": 293,
      "their": 294,
      "gr": 295,
      "amp": 296,
      "ber": 297,
      "act": 298,
      "ep": 299,
      "ame": 300,
      "any": 301,
      "sof": 302,
      "ok": 303,
      "New": 304,
      "ish": 305,
      "ident": 306,
      "Un": 307,
      "ign": 308,
      "ree": 309,
      "cl": 310,
      "ide": 311,
      "ile": 312,
      "ne": 313,
      "bl": 314,
      "tern": 315,
      "ru": 316,
      "ark": 317,
      "but": 318,
      "ass": 319,
      "ome": 320,
      "ach": 321,
      "ions": 322,
      "ime": 323,
      "ue": 324,
      "ire": 325,
      "Ira": 326,
      "Iraq": 327,
      "age": 328,
      "ond": 329,
      "ays": 330,
      "av": 331,
      "ail": 332,
      "ry": 333,
      "Mon": 334,
      "cent": 335,
      "ob": 336,
      "att": 337,
      "ph": 338,
      "first": 339,
      "ake": 340,
      "--": 341,
      "ors": 342,
      "port": 343,
      "200": 344,
      "An": 345,
      "two": 346,
      "Mic": 347,
      "ek": 348,
      "ON": 349,
      "row": 350,
      "ices": 351,
      "ann": 352,
      "lead": 353,
      "sc": 354,
      "ens": 355,
      "co": 356,
      "uc": 357,
      "ase": 358,
      "ations": 359,
      "resident": 360,
      "more": 361,
      "ins": 362,
      "urs": 363,
      "ates": 364,
      "again": 365,
      "fin": 366,
      "ary": 367,
      "oll": 368,
      "bo": 369,
      "iday": 370,
      "Wed": 371,
      "ash": 372,
      "toc": 373,
      "Wedn": 374,
      "Wednesday": 375,
      "Monday": 376,
      "ect": 377,
      "Tu": 378,
      "inv": 379,
      "Sh": 380,
      "Tuesday": 381,
      "...": 382,
      "ext": 383,
      "ov": 384,
      "Thurs": 385,
      "ret": 386,
      "Thursday": 387,
      "ite": 388,
      "not": 389,
      "und": 390,
      "ets": 391,
      "ory": 392,
      "iz": 393,
      "ank": 394,
      "als": 395,
      "lect": 396,
      "company": 397,
      "dis": 398,
      "ich": 399,
      "li": 400,
      "rit": 401,
      "Inc": 402,
      "this": 403,
      "ough": 404,
      "than": 405,
      "ester": 406,
      "back": 407,
      "work": 408,
      "ush": 409,
      "hel": 410,
      "ence": 411,
      "ade": 412,
      "mon": 413,
      "Friday": 414,
      "iss": 415,
      "arter": 416,
      "ated": 417,
      "Sun": 418,
      "ull": 419,
      "rec": 420,
      "exp": 421,
      "land": 422,
      "int": 423,
      "Pr": 424,
      "ict": 425,
      "ous": 426,
      "Micro": 427,
      "Ind": 428,
      "go": 429,
      "ven": 430,
      "last": 431,
      "earch": 432,
      "ance": 433,
      "play": 434,
      "ational": 435,
      "acc": 436,
      "week": 437,
      "who": 438,
      "Is": 439,
      "top": 440,
      "ited": 441,
      "OR": 442,
      "against": 443,
      "into": 444,
      "ure": 445,
      "anc": 446,
      "line": 447,
      "Com": 448,
      "ef": 449,
      "ople": 450,
      ";/": 451,
      "air": 452,
      "oup": 453,
      "ican": 454,
      "urn": 455,
      "soft": 456,
      "po": 457,
      "pos": 458,
      "ason": 459,
      "cont": 460,
      "win": 461,
      "ss": 462,
      "uro": 463,
      "Af": 464,
      "ally": 465,
      "esterday": 466,
      "high": 467,
      "mark": 468,
      "Cor": 469,
      "med": 470,
      "yesterday": 471,
      "mak": 472,
      "about": 473,
      "Le": 474,
      "down": 475,
      "million": 476,
      "Microsoft": 477,
      "overn": 478,
      "other": 479,
      "AN": 480,
      "ina": 481,
      "invest": 482,
      "me": 483,
      "offic": 484,
      "were": 485,
      "they": 486,
      "ton": 487,
      "bu": 488,
      "ress": 489,
      "inist": 490,
      "quarter": 491,
      "Intern": 492,
      "En": 493,
      "set": 494,
      "yst": 495,
      "Sp": 496,
      "ounc": 497,
      "world": 498,
      "NE": 499,
      "ote": 500,
      "ang": 501,
      "war": 502,
      "kill": 503,
      "been": 504,
      "had": 505,
      "ting": 506,
      "ble": 507,
      "ition": 508,
      "Amer": 509,
      "serv": 510,
      "Ex": 511,
      "fo": 512,
      "vel": 513,
      "Al": 514,
      "fl": 515,
      "head": 516,
      "time": 517,
      "able": 518,
      "br": 519,
      "coun": 520,
      "str": 521,
      "tal": 522,
      "Wor": 523,
      "ating": 524,
      "ird": 525,
      "three": 526,
      "sl": 527,
      "Corp": 528,
      "oil": 529,
      "Euro": 530,
      "10": 531,
      "atur": 532,
      "ower": 533,
      "overnment": 534,
      "AS": 535,
      "eral": 536,
      "ral": 537,
      "Qu": 538,
      "ilit": 539,
      "atch": 540,
      "ise": 541,
      "vi": 542,
      "miss": 543,
      "ased": 544,
      "ement": 545,
      "month": 546,
      "stoc": 547,
      "For": 548,
      "oy": 549,
      "Sunday": 550,
      "ected": 551,
      "AF": 552,
      "United": 553,
      "uss": 554,
      "dec": 555,
      "urity": 556,
      "riv": 557,
      "ped": 558,
      "reat": 559,
      "would": 560,
      "team": 561,
      "cr": 562,
      "way": 563,
      "Ar": 564,
      "pol": 565,
      "ines": 566,
      "part": 567,
      "Europe": 568,
      "season": 569,
      "official": 570,
      "elect": 571,
      "enc": 572,
      "ball": 573,
      "four": 574,
      "use": 575,
      "could": 576,
      "government": 577,
      "No": 578,
      "ff": 579,
      "IN": 580,
      "sur": 581,
      "prov": 582,
      "repor": 583,
      "pu": 584,
      "ely": 585,
      "Con": 586,
      "second": 587,
      "olog": 588,
      "ix": 589,
      "rem": 590,
      "ical": 591,
      "bus": 592,
      "which": 593,
      "def": 594,
      "years": 595,
      "Co": 596,
      "game": 597,
      "AFP": 598,
      "tware": 599,
      "iness": 600,
      "sup": 601,
      "ales": 602,
      "We": 603,
      "people": 604,
      "pt": 605,
      "ics": 606,
      "do": 607,
      "reg": 608,
      "chn": 609,
      "par": 610,
      "today": 611,
      "ww": 612,
      "President": 613,
      "try": 614,
      "cre": 615,
      "des": 616,
      "De": 617,
      "run": 618,
      "ows": 619,
      "percent": 620,
      "leg": 621,
      "announc": 622,
      "night": 623,
      "Brit": 624,
      "ms": 625,
      "AT": 626,
      "Ser": 627,
      "ft": 628,
      "ran": 629,
      "Jo": 630,
      "fore": 631,
      "most": 632,
      "prices": 633,
      "NEW": 634,
      "cap": 635,
      "ital": 636,
      "when": 637,
      "eng": 638,
      "World": 639,
      "Mar": 640,
      "unch": 641,
      "rel": 642,
      "says": 643,
      "ck": 644,
      "ub": 645,
      "next": 646,
      "az": 647,
      "ath": 648,
      "Satur": 649,
      "Saturday": 650,
      "third": 651,
      "less": 652,
      "plan": 653,
      "cons": 654,
      "ystem": 655,
      "market": 656,
      "prod": 657,
      "Aust": 658,
      "ings": 659,
      "bec": 660,
      "China": 661,
      "Jap": 662,
      "tri": 663,
      "clo": 664,
      "uct": 665,
      "Japan": 666,
      "ns": 667,
      "lear": 668,
      "ron": 669,
      "rug": 670,
      "ief": 671,
      "vict": 672,
      "Go": 673,
      "Se": 674,
      "record": 675,
      "Pl": 676,
      "ild": 677,
      "aj": 678,
      "prof": 679,
      "can": 680,
      "tt": 681,
      "ents": 682,
      "bel": 683,
      "inister": 684,
      "As": 685,
      "bet": 686,
      "ty": 687,
      "ORK": 688,
      "oper": 689,
      "chnolog": 690,
      "Gr": 691,
      "ists": 692,
      "ort": 693,
      "YORK": 694,
      "ug": 695,
      "may": 696,
      "some": 697,
      "software": 698,
      "Te": 699,
      "billion": 700,
      "Pal": 701,
      "no": 702,
      "milit": 703,
      "law": 704,
      "Russ": 705,
      "under": 706,
      "Bush": 707,
      "open": 708,
      "car": 709,
      "vis": 710,
      "led": 711,
      "put": 712,
      "mo": 713,
      "Or": 714,
      "uring": 715,
      "Internet": 716,
      "Air": 717,
      "cer": 718,
      "rael": 719,
      "form": 720,
      "Can": 721,
      "Israel": 722,
      "cess": 723,
      "Austral": 724,
      "2004": 725,
      "mp": 726,
      "Res": 727,
      "=\"": 728,
      "ied": 729,
      "io": 730,
      "rest": 731,
      "big": 732,
      "ames": 733,
      "inter": 734,
      "Wh": 735,
      "omb": 736,
      "Up": 737,
      "so": 738,
      "business": 739,
      "ah": 740,
      "early": 741,
      "Pro": 742,
      "aw": 743,
      "get": 744,
      "rele": 745,
      "agre": 746,
      "ult": 747,
      "eld": 748,
      "ship": 749,
      "announced": 750,
      "group": 751,
      "RE": 752,
      "used": 753,
      "deal": 754,
      "ourt": 755,
      "ones": 756,
      "stocks": 757,
      "call": 758,
      "publ": 759,
      "app": 760,
      "Net": 761,
      "urr": 762,
      "au": 763,
      "Quote": 764,
      "pre": 765,
      "Sec": 766,
      "now": 767,
      "onom": 768,
      "000": 769,
      "take": 770,
      "security": 771,
      "fer": 772,
      "test": 773,
      "ner": 774,
      "ple": 775,
      "president": 776,
      "istan": 777,
      "outh": 778,
      "ports": 779,
      "Ph": 780,
      "Pe": 781,
      "say": 782,
      "Be": 783,
      "grow": 784,
      "start": 785,
      "vers": 786,
      "ica": 787,
      "Red": 788,
      "ier": 789,
      "les": 790,
      "net": 791,
      "ague": 792,
      "maker": 793,
      "econom": 794,
      "targ": 795,
      "uch": 796,
      "Nor": 797,
      "dem": 798,
      "sign": 799,
      "inu": 800,
      "larg": 801,
      "chnology": 802,
      "red": 803,
      "Ap": 804,
      "tle": 805,
      "acks": 806,
      "ince": 807,
      "killed": 808,
      "victory": 809,
      "shar": 810,
      "enter": 811,
      "19": 812,
      "AL": 813,
      "help": 814,
      "It": 815,
      "key": 816,
      "European": 817,
      "cut": 818,
      "post": 819,
      "reported": 820,
      "ollar": 821,
      "He": 822,
      "American": 823,
      "officials": 824,
      "ives": 825,
      "Op": 826,
      "comm": 827,
      "sales": 828,
      "15": 829,
      "ajor": 830,
      "system": 831,
      "ield": 832,
      "ER": 833,
      "ered": 834,
      "ards": 835,
      "ev": 836,
      "ib": 837,
      "ris": 838,
      "tain": 839,
      "fe": 840,
      "gy": 841,
      "Joh": 842,
      "ual": 843,
      "ants": 844,
      "expected": 845,
      "ampion": 846,
      "rough": 847,
      "launch": 848,
      "just": 849,
      "ING": 850,
      "Oly": 851,
      "Olymp": 852,
      "Cup": 853,
      "inian": 854,
      "Canad": 855,
      "add": 856,
      "hold": 857,
      "bro": 858,
      "look": 859,
      "long": 860,
      "country": 861,
      "BM": 862,
      "read": 863,
      "So": 864,
      "nings": 865,
      "ending": 866,
      "Oil": 867,
      "tak": 868,
      "ecut": 869,
      "UN": 870,
      "home": 871,
      "Col": 872,
      "plans": 873,
      "laim": 874,
      "lin": 875,
      "ities": 876,
      "ons": 877,
      "ork": 878,
      "ands": 879,
      "manag": 880,
      "Palest": 881,
      "target": 882,
      "ces": 883,
      "20": 884,
      "ient": 885,
      "lat": 886,
      "ave": 887,
      "gest": 888,
      "ago": 889,
      "ony": 890,
      "rol": 891,
      "full": 892,
      "Man": 893,
      "ese": 894,
      "before": 895,
      "British": 896,
      "ror": 897,
      "gan": 898,
      "Palestinian": 899,
      "ams": 900,
      "min": 901,
      "usp": 902,
      "buy": 903,
      "usic": 904,
      "largest": 905,
      "show": 906,
      "gen": 907,
      "ogle": 908,
      "Minister": 909,
      "final": 910,
      "gian": 911,
      "AR": 912,
      "Bl": 913,
      "ood": 914,
      "India": 915,
      "States": 916,
      "IBM": 917,
      "ium": 918,
      "ederal": 919,
      "many": 920,
      "her": 921,
      "ency": 922,
      "ington": 923,
      "hit": 924,
      "ember": 925,
      "host": 926,
      "Eng": 927,
      "tom": 928,
      "former": 929,
      "Google": 930,
      "arm": 931,
      "tra": 932,
      "York": 933,
      "sch": 934,
      "IS": 935,
      "Tr": 936,
      "Sof": 937,
      "report": 938,
      "Cl": 939,
      "ording": 940,
      "ged": 941,
      "Ad": 942,
      "ax": 943,
      "bid": 944,
      ";...": 945,
      "ury": 946,
      ";...&": 947,
      "ering": 948,
      "Iraqi": 949,
      "Web": 950,
      "On": 951,
      "bank": 952,
      "Shar": 953,
      "\"&": 954,
      "incl": 955,
      "icker": 956,
      "velop": 957,
      "TON": 958,
      "lif": 959,
      "11": 960,
      "rop": 961,
      "you": 962,
      "raw": 963,
      "obile": 964,
      "him": 965,
      "hal": 966,
      "mission": 967,
      "BA": 968,
      "five": 969,
      "reak": 970,
      "won": 971,
      "pres": 972,
      "anies": 973,
      ".,": 974,
      "made": 975,
      "through": 976,
      "technology": 977,
      "ger": 978,
      "job": 979,
      "Prof": 980,
      "ful": 981,
      "major": 982,
      "thern": 983,
      "ision": 984,
      "least": 985,
      "indust": 986,
      "ause": 987,
      "ular": 988,
      "phone": 989,
      "Bo": 990,
      "ata": 991,
      "ears": 992,
      "ween": 993,
      "ned": 994,
      "50": 995,
      "claim": 996,
      "With": 997,
      "ense": 998,
      "profit": 999,
      "66": 1000,
      "South": 1001,
      "To": 1002,
      "pay": 1003,
      "bomb": 1004,
      "TO": 1005,
      "make": 1006,
      "Off": 1007,
      "ended": 1008,
      "Cal": 1009,
      "AM": 1010,
      "Fl": 1011,
      "ious": 1012,
      "fil": 1013,
      "coach": 1014,
      "Ger": 1015,
      "quick": 1016,
      "incre": 1017,
      "them": 1018,
      "bal": 1019,
      "between": 1020,
      "execut": 1021,
      "SE": 1022,
      "ops": 1023,
      "ever": 1024,
      "chief": 1025,
      "Sep": 1026,
      "12": 1027,
      "news": 1028,
      "IT": 1029,
      "round": 1030,
      "ling": 1031,
      "els": 1032,
      "strong": 1033,
      "//": 1034,
      "state": 1035,
      "ask": 1036,
      "hop": 1037,
      "ures": 1038,
      "ock": 1039,
      "power": 1040,
      "ouse": 1041,
      "ots": 1042,
      "://": 1043,
      "during": 1044,
      "htt": 1045,
      "http": 1046,
      "Stoc": 1047,
      "service": 1048,
      "gu": 1049,
      "ley": 1050,
      "Sc": 1051,
      "sm": 1052,
      "companies": 1053,
      "talks": 1054,
      "beat": 1055,
      "what": 1056,
      "according": 1057,
      "cost": 1058,
      "CO": 1059,
      "pass": 1060,
      "dollar": 1061,
      "trad": 1062,
      "leader": 1063,
      "search": 1064,
      "loss": 1065,
      "ages": 1066,
      "poin": 1067,
      "fur": 1068,
      "susp": 1069,
      "www": 1070,
      "another": 1071,
      "eks": 1072,
      "Car": 1073,
      "ale": 1074,
      "Int": 1075,
      "stor": 1076,
      "uter": 1077,
      "Ara": 1078,
      "PC": 1079,
      "gain": 1080,
      "stri": 1081,
      "includ": 1082,
      "Pak": 1083,
      "gin": 1084,
      "six": 1085,
      "held": 1086,
      "uclear": 1087,
      "ivers": 1088,
      "date": 1089,
      "intern": 1090,
      "based": 1091,
      "ange": 1092,
      "public": 1093,
      "der": 1094,
      "computer": 1095,
      "League": 1096,
      "pers": 1097,
      "develop": 1098,
      "CE": 1099,
      "News": 1100,
      "ireless": 1101,
      "At": 1102,
      "del": 1103,
      "produc": 1104,
      "Open": 1105,
      "bar": 1106,
      "Sept": 1107,
      "sell": 1108,
      "info": 1109,
      "hand": 1110,
      "inj": 1111,
      "giant": 1112,
      "tele": 1113,
      "right": 1114,
      "John": 1115,
      "reach": 1116,
      "view": 1117,
      "threat": 1118,
      "REF": 1119,
      "acle": 1120,
      "attack": 1121,
      "ility": 1122,
      "found": 1123,
      "rup": 1124,
      "while": 1125,
      "aid": 1126,
      "ticker": 1127,
      "expl": 1128,
      "ik": 1129,
      "left": 1130,
      "ications": 1131,
      "election": 1132,
      "reuters": 1133,
      "HREF": 1134,
      "terror": 1135,
      "sub": 1136,
      "Group": 1137,
      "cor": 1138,
      "alth": 1139,
      "meet": 1140,
      "EN": 1141,
      "enn": 1142,
      "spec": 1143,
      "sen": 1144,
      "Pakistan": 1145,
      "Kore": 1146,
      "Will": 1147,
      "court": 1148,
      "reen": 1149,
      "col": 1150,
      "rew": 1151,
      "charg": 1152,
      "Afgh": 1153,
      "14": 1154,
      "attle": 1155,
      "Bank": 1156,
      "jo": 1157,
      "still": 1158,
      "Australia": 1159,
      "come": 1160,
      "owing": 1161,
      "OS": 1162,
      "Tw": 1163,
      "since": 1164,
      "investor": 1165,
      "ves": 1166,
      "mov": 1167,
      "ping": 1168,
      "30": 1169,
      "Gen": 1170,
      "After": 1171,
      "Prime": 1172,
      "itch": 1173,
      "industry": 1174,
      "Apple": 1175,
      "share": 1176,
      "cus": 1177,
      "ised": 1178,
      "men": 1179,
      "tow": 1180,
      "being": 1181,
      "Iran": 1182,
      "asp": 1183,
      "North": 1184,
      "ai": 1185,
      "camp": 1186,
      "erry": 1187,
      "International": 1188,
      "music": 1189,
      "ploy": 1190,
      "ool": 1191,
      "let": 1192,
      "ution": 1193,
      "police": 1194,
      "Sox": 1195,
      "ban": 1196,
      "bers": 1197,
      "face": 1198,
      "move": 1199,
      "dead": 1200,
      "aster": 1201,
      "ys": 1202,
      "Afghan": 1203,
      "got": 1204,
      "ench": 1205,
      "even": 1206,
      "tract": 1207,
      "progr": 1208,
      "nor": 1209,
      "field": 1210,
      "return": 1211,
      "agreed": 1212,
      "ights": 1213,
      "military": 1214,
      "ured": 1215,
      "Israeli": 1216,
      "ator": 1217,
      "fall": 1218,
      "chip": 1219,
      "Wind": 1220,
      "ific": 1221,
      "iver": 1222,
      "tro": 1223,
      "Oracle": 1224,
      "keep": 1225,
      "Full": 1226,
      "War": 1227,
      "uel": 1228,
      "sour": 1229,
      "People": 1230,
      "sing": 1231,
      "ink": 1232,
      "acqu": 1233,
      "Dav": 1234,
      "only": 1235,
      "nation": 1236,
      "like": 1237,
      "NAS": 1238,
      "firm": 1239,
      "lobal": 1240,
      "nuclear": 1241,
      "rul": 1242,
      "months": 1243,
      "growth": 1244,
      "half": 1245,
      "One": 1246,
      "rupt": 1247,
      "aza": 1248,
      "ects": 1249,
      "mar": 1250,
      "days": 1251,
      "because": 1252,
      "Olympic": 1253,
      "sold": 1254,
      "quote": 1255,
      "ats": 1256,
      "Russian": 1257,
      "stand": 1258,
      "INGTON": 1259,
      "change": 1260,
      "Mc": 1261,
      "UK": 1262,
      "drug": 1263,
      "Intel": 1264,
      "=/": 1265,
      "num": 1266,
      "fullquote": 1267,
      "quickinfo": 1268,
      "aspx": 1269,
      "FullQuote": 1270,
      "oo": 1271,
      "ments": 1272,
      "San": 1273,
      "Bar": 1274,
      "turn": 1275,
      "oci": 1276,
      "ply": 1277,
      "hom": 1278,
      "blo": 1279,
      "ought": 1280,
      "fact": 1281,
      "Soft": 1282,
      "reet": 1283,
      "Russia": 1284,
      "ible": 1285,
      "Afr": 1286,
      "England": 1287,
      "Wash": 1288,
      "vent": 1289,
      "oss": 1290,
      "State": 1291,
      "ism": 1292,
      "research": 1293,
      "Windows": 1294,
      "Ass": 1295,
      "Mo": 1296,
      "biggest": 1297,
      "ste": 1298,
      "champion": 1299,
      "quest": 1300,
      "online": 1301,
      "ASH": 1302,
      "ross": 1303,
      "urrican": 1304,
      "irect": 1305,
      "Fall": 1306,
      "And": 1307,
      "ators": 1308,
      "mobile": 1309,
      "cal": 1310,
      "36": 1311,
      "points": 1312,
      "otball": 1313,
      "But": 1314,
      "star": 1315,
      "scor": 1316,
      "West": 1317,
      "By": 1318,
      "Ro": 1319,
      "ison": 1320,
      "including": 1321,
      "services": 1322,
      "iers": 1323,
      "pite": 1324,
      "National": 1325,
      "ey": 1326,
      "Bag": 1327,
      "where": 1328,
      "Indian": 1329,
      "sw": 1330,
      "stud": 1331,
      "thing": 1332,
      "earnings": 1333,
      "DA": 1334,
      "ASHINGTON": 1335,
      "vice": 1336,
      "WASHINGTON": 1337,
      "consum": 1338,
      "foll": 1339,
      "tit": 1340,
      "cy": 1341,
      "dou": 1342,
      "fight": 1343,
      "there": 1344,
      "remain": 1345,
      "Washington": 1346,
      "Canadian": 1347,
      "ham": 1348,
      "issu": 1349,
      "EU": 1350,
      "compet": 1351,
      "ney": 1352,
      "should": 1353,
      "wom": 1354,
      "uk": 1355,
      "ater": 1356,
      "amil": 1357,
      "insur": 1358,
      "product": 1359,
      "need": 1360,
      "EL": 1361,
      "Sup": 1362,
      "free": 1363,
      "players": 1364,
      "higher": 1365,
      "stra": 1366,
      "retail": 1367,
      "16": 1368,
      "fut": 1369,
      "place": 1370,
      "disc": 1371,
      "low": 1372,
      "mem": 1373,
      "draw": 1374,
      "latest": 1375,
      "Gaza": 1376,
      "near": 1377,
      "seven": 1378,
      "Sch": 1379,
      "using": 1380,
      "lim": 1381,
      "idn": 1382,
      "point": 1383,
      "space": 1384,
      "Dis": 1385,
      "city": 1386,
      "PeopleSoft": 1387,
      "hd": 1388,
      "released": 1389,
      "Sports": 1390,
      "ends": 1391,
      "ES": 1392,
      "stock": 1393,
      "Gu": 1394,
      "rose": 1395,
      "fac": 1396,
      "ative": 1397,
      "Research": 1398,
      "18": 1399,
      "shares": 1400,
      "Bost": 1401,
      "ready": 1402,
      "13": 1403,
      "17": 1404,
      "ahead": 1405,
      "Ear": 1406,
      "Boston": 1407,
      "hard": 1408,
      "Del": 1409,
      "vir": 1410,
      "lines": 1411,
      "fell": 1412,
      "iting": 1413,
      "ideo": 1414,
      "Stocks": 1415,
      "much": 1416,
      "Baghd": 1417,
      "Dec": 1418,
      "Baghdad": 1419,
      "ren": 1420,
      "Aug": 1421,
      "games": 1422,
      "BC": 1423,
      "viol": 1424,
      "spe": 1425,
      "Network": 1426,
      "Dar": 1427,
      "Am": 1428,
      "process": 1429,
      "2005": 1430,
      "data": 1431,
      "Mart": 1432,
      "Yan": 1433,
      "Fin": 1434,
      "raft": 1435,
      "peace": 1436,
      "OND": 1437,
      "imes": 1438,
      "offer": 1439,
      "polit": 1440,
      "Nov": 1441,
      "Br": 1442,
      "sure": 1443,
      "Sud": 1444,
      "match": 1445,
      "drop": 1446,
      "recent": 1447,
      "25": 1448,
      "arge": 1449,
      "gold": 1450,
      "kn": 1451,
      "troops": 1452,
      "hist": 1453,
      "Out": 1454,
      "break": 1455,
      "rival": 1456,
      "users": 1457,
      "onal": 1458,
      "prom": 1459,
      "Australian": 1460,
      "suc": 1461,
      "Ge": 1462,
      "fat": 1463,
      "ze": 1464,
      "my": 1465,
      "ump": 1466,
      "fail": 1467,
      "poss": 1468,
      "program": 1469,
      "Sudan": 1470,
      "ize": 1471,
      "ising": 1472,
      "demand": 1473,
      "French": 1474,
      "effor": 1475,
      "step": 1476,
      "ament": 1477,
      "Phil": 1478,
      "mit": 1479,
      ";&": 1480,
      "LOND": 1481,
      "CA": 1482,
      "Bu": 1483,
      "LONDON": 1484,
      "atic": 1485,
      "ancial": 1486,
      "ref": 1487,
      "High": 1488,
      "oney": 1489,
      "ior": 1490,
      "sum": 1491,
      "Two": 1492,
      "good": 1493,
      "position": 1494,
      "Security": 1495,
      "MS": 1496,
      "build": 1497,
      "past": 1498,
      "continu": 1499,
      "fourth": 1500,
      "ises": 1501,
      "acy": 1502,
      "minist": 1503,
      "concer": 1504,
      "aign": 1505,
      "Ital": 1506,
      "son": 1507,
      "direct": 1508,
      "how": 1509,
      "press": 1510,
      "America": 1511,
      "price": 1512,
      "Wall": 1513,
      "main": 1514,
      "economy": 1515,
      "ID": 1516,
      "thor": 1517,
      "Ed": 1518,
      "Kerry": 1519,
      "around": 1520,
      "unt": 1521,
      "trade": 1522,
      "international": 1523,
      "100": 1524,
      "contract": 1525,
      "inux": 1526,
      "Linux": 1527,
      "ference": 1528,
      "May": 1529,
      "aim": 1530,
      "forces": 1531,
      "release": 1532,
      "iving": 1533,
      "region": 1534,
      "ose": 1535,
      "weeks": 1536,
      "ocr": 1537,
      "boost": 1538,
      "leaders": 1539,
      "Flor": 1540,
      "Ac": 1541,
      "inn": 1542,
      "lik": 1543,
      "Korea": 1544,
      "ways": 1545,
      "ized": 1546,
      "Fir": 1547,
      "outs": 1548,
      "called": 1549,
      "executive": 1550,
      "igital": 1551,
      "rebel": 1552,
      "iger": 1553,
      "Associ": 1554,
      "Update": 1555,
      "Street": 1556,
      "Ag": 1557,
      "presidential": 1558,
      "Sy": 1559,
      "leading": 1560,
      "Sw": 1561,
      "reports": 1562,
      "hol": 1563,
      "hip": 1564,
      "sol": 1565,
      "support": 1566,
      "TV": 1567,
      "Yanke": 1568,
      "dom": 1569,
      "isco": 1570,
      "bit": 1571,
      "ases": 1572,
      "cru": 1573,
      "ida": 1574,
      "CH": 1575,
      "federal": 1576,
      "pop": 1577,
      "Per": 1578,
      "ults": 1579,
      "ject": 1580,
      "lower": 1581,
      "dri": 1582,
      "close": 1583,
      "Elect": 1584,
      "economic": 1585,
      "number": 1586,
      "NASA": 1587,
      "mail": 1588,
      "eck": 1589,
      "level": 1590,
      "ider": 1591,
      "Union": 1592,
      "ruct": 1593,
      "investig": 1594,
      "urricane": 1595,
      "took": 1596,
      "ecast": 1597,
      "Dem": 1598,
      "Pol": 1599,
      "Mot": 1600,
      "care": 1601,
      "sk": 1602,
      "Not": 1603,
      "sent": 1604,
      "Play": 1605,
      "Mark": 1606,
      "fund": 1607,
      "Dep": 1608,
      "den": 1609,
      "Bra": 1610,
      "Mac": 1611,
      "well": 1612,
      "your": 1613,
      "Ang": 1614,
      "nearly": 1615,
      "Press": 1616,
      "Florida": 1617,
      "interest": 1618,
      "title": 1619,
      "ging": 1620,
      "elf": 1621,
      "investors": 1622,
      "Par": 1623,
      "series": 1624,
      "rece": 1625,
      "find": 1626,
      "Darfur": 1627,
      "ientists": 1628,
      "fire": 1629,
      "see": 1630,
      "agreement": 1631,
      "school": 1632,
      "Bay": 1633,
      "ness": 1634,
      "wan": 1635,
      "Arafat": 1636,
      "Court": 1637,
      "jobs": 1638,
      "Oc": 1639,
      "ided": 1640,
      "site": 1641,
      "sever": 1642,
      "ike": 1643,
      "late": 1644,
      "ved": 1645,
      "IP": 1646,
      "eff": 1647,
      "City": 1648,
      "Wal": 1649,
      "lit": 1650,
      "iam": 1651,
      "death": 1652,
      "employ": 1653,
      "veil": 1654,
      "alleg": 1655,
      "Japanese": 1656,
      "Game": 1657,
      "pur": 1658,
      "aff": 1659,
      "killing": 1660,
      "ather": 1661,
      "exper": 1662,
      "away": 1663,
      "case": 1664,
      "All": 1665,
      "deb": 1666,
      "France": 1667,
      "mid": 1668,
      "Ab": 1669,
      "ration": 1670,
      "unications": 1671,
      "control": 1672,
      "Octo": 1673,
      "attacks": 1674,
      "global": 1675,
      "24": 1676,
      "works": 1677,
      "workers": 1678,
      "October": 1679,
      "Rec": 1680,
      "mod": 1681,
      "road": 1682,
      "Big": 1683,
      "campaign": 1684,
      "September": 1685,
      "curr": 1686,
      "ensive": 1687,
      "Over": 1688,
      "version": 1689,
      "network": 1690,
      "life": 1691,
      "tax": 1692,
      "bod": 1693,
      "Britain": 1694,
      "nia": 1695,
      "due": 1696,
      "success": 1697,
      "Yankees": 1698,
      "van": 1699,
      "touch": 1700,
      "Ham": 1701,
      "best": 1702,
      "Lead": 1703,
      "cell": 1704,
      "organ": 1705,
      "opt": 1706,
      "More": 1707,
      "order": 1708,
      "despite": 1709,
      "ifor": 1710,
      "source": 1711,
      "oto": 1712,
      "ergy": 1713,
      "likely": 1714,
      "ker": 1715,
      "push": 1716,
      "abor": 1717,
      "board": 1718,
      "here": 1719,
      "might": 1720,
      "broad": 1721,
      "cast": 1722,
      "hum": 1723,
      "inc": 1724,
      "resp": 1725,
      "Says": 1726,
      "Ste": 1727,
      "small": 1728,
      "Federal": 1729,
      "custom": 1730,
      "udge": 1731,
      "action": 1732,
      "Commission": 1733,
      "Geor": 1734,
      "akes": 1735,
      "Des": 1736,
      "rise": 1737,
      "also": 1738,
      "outhern": 1739,
      "wide": 1740,
      "ene": 1741,
      "video": 1742,
      "legal": 1743,
      "Califor": 1744,
      "Fed": 1745,
      "mor": 1746,
      "rate": 1747,
      "idence": 1748,
      "anal": 1749,
      "Bus": 1750,
      "ides": 1751,
      "Vir": 1752,
      "det": 1753,
      "Def": 1754,
      "amed": 1755,
      "ify": 1756,
      "rad": 1757,
      "vices": 1758,
      "ait": 1759,
      "ired": 1760,
      "coming": 1761,
      "lam": 1762,
      "arrest": 1763,
      "appl": 1764,
      "adv": 1765,
      "ished": 1766,
      "rap": 1767,
      "Vi": 1768,
      "adr": 1769,
      "trans": 1770,
      "TH": 1771,
      "stop": 1772,
      "ened": 1773,
      "list": 1774,
      "capital": 1775,
      "rip": 1776,
      "SP": 1777,
      "ills": 1778,
      "Space": 1779,
      "making": 1780,
      "equ": 1781,
      "ades": 1782,
      "General": 1783,
      "following": 1784,
      "eas": 1785,
      "ampions": 1786,
      "TA": 1787,
      "design": 1788,
      "Sing": 1789,
      "bur": 1790,
      "ung": 1791,
      "La": 1792,
      "imin": 1793,
      "Har": 1794,
      "whe": 1795,
      "conf": 1796,
      "Sony": 1797,
      "dist": 1798,
      "watch": 1799,
      "oust": 1800,
      "short": 1801,
      "products": 1802,
      "real": 1803,
      "famil": 1804,
      "give": 1805,
      "suit": 1806,
      "Compu": 1807,
      "hour": 1808,
      "California": 1809,
      "vision": 1810,
      "prot": 1811,
      "Mer": 1812,
      "Su": 1813,
      "Tex": 1814,
      "crit": 1815,
      "race": 1816,
      "ca": 1817,
      "regul": 1818,
      "Canada": 1819,
      "ners": 1820,
      "thers": 1821,
      "orn": 1822,
      "player": 1823,
      "Ma": 1824,
      "band": 1825,
      "ites": 1826,
      "mber": 1827,
      "charges": 1828,
      "Tal": 1829,
      "both": 1830,
      "Nove": 1831,
      "propos": 1832,
      "GH": 1833,
      "battle": 1834,
      "Pa": 1835,
      "gra": 1836,
      "rock": 1837,
      "customers": 1838,
      "),": 1839,
      "Univers": 1840,
      "football": 1841,
      "November": 1842,
      "pat": 1843,
      "future": 1844,
      "Green": 1845,
      "Ne": 1846,
      "uj": 1847,
      "CEO": 1848,
      "ving": 1849,
      "ined": 1850,
      "ster": 1851,
      "owed": 1852,
      "minister": 1853,
      "SAN": 1854,
      "bed": 1855,
      "shot": 1856,
      "ward": 1857,
      "begin": 1858,
      "clear": 1859,
      "El": 1860,
      "sem": 1861,
      "engine": 1862,
      "vo": 1863,
      "Computer": 1864,
      "wireless": 1865,
      "approv": 1866,
      "manager": 1867,
      "ten": 1868,
      "Champion": 1869,
      "author": 1870,
      "forecast": 1871,
      "aseball": 1872,
      "Pat": 1873,
      "met": 1874,
      "Med": 1875,
      "Comm": 1876,
      "Hol": 1877,
      "Sm": 1878,
      "Series": 1879,
      "fr": 1880,
      "rist": 1881,
      "Test": 1882,
      "vol": 1883,
      "running": 1884,
      "gas": 1885,
      "she": 1886,
      "plac": 1887,
      "ances": 1888,
      "such": 1889,
      "formation": 1890,
      "decision": 1891,
      "foreign": 1892,
      "ians": 1893,
      "winning": 1894,
      "Ber": 1895,
      "financial": 1896,
      "Profit": 1897,
      "national": 1898,
      "pull": 1899,
      "clos": 1900,
      "21": 1901,
      "Sen": 1902,
      "systems": 1903,
      "pitch": 1904,
      "gun": 1905,
      "Micha": 1906,
      "told": 1907,
      "political": 1908,
      "taking": 1909,
      "FL": 1910,
      "RAN": 1911,
      "digital": 1912,
      "meeting": 1913,
      "ktop": 1914,
      "stro": 1915,
      "div": 1916,
      "pri": 1917,
      "ension": 1918,
      "ds": 1919,
      "Shares": 1920,
      "GO": 1921,
      "anti": 1922,
      "proble": 1923,
      "uge": 1924,
      "airman": 1925,
      "Michael": 1926,
      "This": 1927,
      "whether": 1928,
      "trial": 1929,
      "straight": 1930,
      "Post": 1931,
      "ges": 1932,
      "iams": 1933,
      "rich": 1934,
      "reven": 1935,
      "urt": 1936,
      "without": 1937,
      "few": 1938,
      "side": 1939,
      "Profile": 1940,
      "Williams": 1941,
      "aud": 1942,
      "Gold": 1943,
      "bled": 1944,
      "tries": 1945,
      "Hurricane": 1946,
      "ware": 1947,
      "unveil": 1948,
      "prise": 1949,
      "IL": 1950,
      "media": 1951,
      "ona": 1952,
      "load": 1953,
      "several": 1954,
      "Mus": 1955,
      "saying": 1956,
      "ric": 1957,
      "prove": 1958,
      "inese": 1959,
      "ming": 1960,
      "Comp": 1961,
      "Texas": 1962,
      "elections": 1963,
      "results": 1964,
      "costs": 1965,
      "light": 1966,
      "too": 1967,
      "rugg": 1968,
      "launched": 1969,
      "oting": 1970,
      "que": 1971,
      "going": 1972,
      "scored": 1973,
      "System": 1974,
      "gener": 1975,
      "IA": 1976,
      "estern": 1977,
      "uck": 1978,
      "eight": 1979,
      "Inv": 1980,
      "every": 1981,
      "little": 1982,
      "Do": 1983,
      "defe": 1984,
      "far": 1985,
      "great": 1986,
      "atter": 1987,
      "ries": 1988,
      "Chinese": 1989,
      "How": 1990,
      "force": 1991,
      "expect": 1992,
      "become": 1993,
      "gets": 1994,
      "settle": 1995,
      "ta": 1996,
      "hind": 1997,
      "Championship": 1998,
      "lock": 1999,
      "strike": 2000,
      "accoun": 2001,
      "appear": 2002,
      "Germany": 2003,
      "term": 2004,
      "Stor": 2005,
      "Ret": 2006,
      "iP": 2007,
      "ability": 2008,
      "artment": 2009,
      "vote": 2010,
      "erve": 2011,
      "Cong": 2012,
      "phones": 2013,
      "retary": 2014,
      "does": 2015,
      "better": 2016,
      "Tur": 2017,
      "osp": 2018,
      "iff": 2019,
      "polic": 2020,
      "Democr": 2021,
      "house": 2022,
      "uts": 2023,
      "increase": 2024,
      "qual": 2025,
      "Lo": 2026,
      "Wireless": 2027,
      "Search": 2028,
      "ugh": 2029,
      "weekend": 2030,
      "secut": 2031,
      "hot": 2032,
      "management": 2033,
      "bankrupt": 2034,
      "German": 2035,
      "uce": 2036,
      "cond": 2037,
      "Tro": 2038,
      "oks": 2039,
      "anned": 2040,
      "quarterly": 2041,
      "House": 2042,
      "cop": 2043,
      "resh": 2044,
      "comple": 2045,
      "Islam": 2046,
      "Oct": 2047,
      "avy": 2048,
      "stat": 2049,
      "lost": 2050,
      "ining": 2051,
      "wound": 2052,
      "women": 2053,
      "Att": 2054,
      "agency": 2055,
      "chang": 2056,
      "speed": 2057,
      "history": 2058,
      "rank": 2059,
      "across": 2060,
      "Afghanistan": 2061,
      "Fo": 2062,
      "possible": 2063,
      "barrel": 2064,
      "rown": 2065,
      "dr": 2066,
      "iPod": 2067,
      "Me": 2068,
      "consumer": 2069,
      "Chief": 2070,
      "health": 2071,
      "analyst": 2072,
      "Bla": 2073,
      "ession": 2074,
      "ahoo": 2075,
      "priv": 2076,
      "chall": 2077,
      "ified": 2078,
      "hostage": 2079,
      "morning": 2080,
      "aper": 2081,
      "ection": 2082,
      "Yahoo": 2083,
      "perfor": 2084,
      "Gian": 2085,
      "Just": 2086,
      "rod": 2087,
      "icket": 2088,
      "Indones": 2089,
      "then": 2090,
      "child": 2091,
      "makers": 2092,
      "LE": 2093,
      "icans": 2094,
      "belie": 2095,
      "lier": 2096,
      "prison": 2097,
      "club": 2098,
      "inst": 2099,
      "ana": 2100,
      "warned": 2101,
      "EM": 2102,
      "euro": 2103,
      "members": 2104,
      "attem": 2105,
      "ufact": 2106,
      "etro": 2107,
      "ape": 2108,
      "David": 2109,
      "rates": 2110,
      "500": 2111,
      "August": 2112,
      "ousands": 2113,
      "Department": 2114,
      "fans": 2115,
      "AD": 2116,
      "\\\\": 2117,
      "ll": 2118,
      "When": 2119,
      "Lond": 2120,
      "came": 2121,
      "era": 2122,
      "East": 2123,
      "Part": 2124,
      "ived": 2125,
      "poll": 2126,
      "cash": 2127,
      "operating": 2128,
      "London": 2129,
      "uses": 2130,
      "Miss": 2131,
      "foc": 2132,
      "ips": 2133,
      "Tech": 2134,
      "corpor": 2135,
      "Bill": 2136,
      "ino": 2137,
      "Nations": 2138,
      "hopes": 2139,
      "goti": 2140,
      "same": 2141,
      "medal": 2142,
      "showed": 2143,
      "adium": 2144,
      "seek": 2145,
      "OL": 2146,
      "did": 2147,
      "party": 2148,
      "Deal": 2149,
      "Chic": 2150,
      "Ari": 2151,
      "NFL": 2152,
      "Pri": 2153,
      "iles": 2154,
      "oid": 2155,
      "aged": 2156,
      "cial": 2157,
      "ety": 2158,
      "posted": 2159,
      "accused": 2160,
      "Pack": 2161,
      "king": 2162,
      "Cub": 2163,
      "among": 2164,
      "Arsen": 2165,
      "Paul": 2166,
      "IR": 2167,
      "Jan": 2168,
      "fuel": 2169,
      "ience": 2170,
      "amid": 2171,
      "trading": 2172,
      "Cr": 2173,
      "td": 2174,
      "reas": 2175,
      "Black": 2176,
      "Atl": 2177,
      "human": 2178,
      "Cent": 2179,
      "vey": 2180,
      "touchdown": 2181,
      "super": 2182,
      "University": 2183,
      "fra": 2184,
      "ially": 2185,
      "Char": 2186,
      "First": 2187,
      "activ": 2188,
      "22": 2189,
      "tool": 2190,
      "Report": 2191,
      "access": 2192,
      "popular": 2193,
      "gress": 2194,
      "strugg": 2195,
      "claims": 2196,
      "Falluj": 2197,
      "bab": 2198,
      "thens": 2199,
      "asser": 2200,
      "explos": 2201,
      "ization": 2202,
      "Former": 2203,
      "takes": 2204,
      "Business": 2205,
      "infl": 2206,
      "militants": 2207,
      "Spain": 2208,
      "visit": 2209,
      "print": 2210,
      "ced": 2211,
      "UP": 2212,
      "Real": 2213,
      "Virgin": 2214,
      "Online": 2215,
      "Invest": 2216,
      "performan": 2217,
      "yo": 2218,
      "behind": 2219,
      "Africa": 2220,
      "Braz": 2221,
      "dle": 2222,
      "Top": 2223,
      "itive": 2224,
      "emer": 2225,
      "BS": 2226,
      "wins": 2227,
      "init": 2228,
      "ties": 2229,
      "information": 2230,
      "NBA": 2231,
      "owl": 2232,
      "Chicago": 2233,
      "prepar": 2234,
      "violence": 2235,
      "Bel": 2236,
      "Lou": 2237,
      "Atlant": 2238,
      "PM": 2239,
      "ared": 2240,
      "Athens": 2241,
      "signed": 2242,
      "minut": 2243,
      "40": 2244,
      "contin": 2245,
      "bring": 2246,
      "Olympics": 2247,
      "Ry": 2248,
      "Jones": 2249,
      "ground": 2250,
      "ota": 2251,
      "Inter": 2252,
      "ribut": 2253,
      "Brazil": 2254,
      "Ver": 2255,
      "Blair": 2256,
      "yn": 2257,
      "ately": 2258,
      "mir": 2259,
      "Americans": 2260,
      "199": 2261,
      "study": 2262,
      "28": 2263,
      "Ken": 2264,
      "Sales": 2265,
      "ij": 2266,
      "23": 2267,
      "27": 2268,
      "ees": 2269,
      "kidn": 2270,
      "sim": 2271,
      "Next": 2272,
      "takeover": 2273,
      "Muslim": 2274,
      "ories": 2275,
      "appe": 2276,
      "television": 2277,
      "FRAN": 2278,
      "mass": 2279,
      "earlier": 2280,
      "helped": 2281,
      "opening": 2282,
      "val": 2283,
      "zer": 2284,
      "ama": 2285,
      "began": 2286,
      "mess": 2287,
      "ATH": 2288,
      "crude": 2289,
      "NY": 2290,
      "Win": 2291,
      "senior": 2292,
      "IM": 2293,
      "ove": 2294,
      "ivil": 2295,
      "crash": 2296,
      "UR": 2297,
      "andid": 2298,
      "weap": 2299,
      "injured": 2300,
      "soldiers": 2301,
      "DV": 2302,
      "HP": 2303,
      "Champions": 2304,
      "ouncil": 2305,
      "profits": 2306,
      "oods": 2307,
      "ENS": 2308,
      "ena": 2309,
      "offering": 2310,
      "growing": 2311,
      "bankruptcy": 2312,
      "rac": 2313,
      "rain": 2314,
      "scientists": 2315,
      "pot": 2316,
      "almost": 2317,
      "ication": 2318,
      "ourn": 2319,
      "Star": 2320,
      "double": 2321,
      "fast": 2322,
      "gent": 2323,
      "Giants": 2324,
      "Ltd": 2325,
      "fre": 2326,
      "African": 2327,
      "Los": 2328,
      "Houst": 2329,
      "Pac": 2330,
      "unit": 2331,
      "town": 2332,
      "Houston": 2333,
      "energy": 2334,
      "che": 2335,
      "ministration": 2336,
      "Che": 2337,
      "Games": 2338,
      "those": 2339,
      "Ann": 2340,
      "ONT": 2341,
      "Set": 2342,
      "Ter": 2343,
      "nine": 2344,
      "Card": 2345,
      "unity": 2346,
      "present": 2347,
      "gl": 2348,
      "suff": 2349,
      "production": 2350,
      "ho": 2351,
      "ford": 2352,
      "negoti": 2353,
      "carri": 2354,
      "died": 2355,
      "Secretary": 2356,
      "must": 2357,
      "apped": 2358,
      "weak": 2359,
      "Egy": 2360,
      "eles": 2361,
      "introd": 2362,
      "performance": 2363,
      "Mid": 2364,
      "aver": 2365,
      "ott": 2366,
      "ption": 2367,
      "Egypt": 2368,
      "Li": 2369,
      "money": 2370,
      "heart": 2371,
      "eing": 2372,
      "aps": 2373,
      "manufact": 2374,
      "soon": 2375,
      "alleged": 2376,
      "yet": 2377,
      "northern": 2378,
      "di": 2379,
      "known": 2380,
      "judge": 2381,
      "league": 2382,
      "Grand": 2383,
      "cuts": 2384,
      "Down": 2385,
      "asing": 2386,
      "vious": 2387,
      "computers": 2388,
      "uction": 2389,
      "southern": 2390,
      "icks": 2391,
      "Arab": 2392,
      "DVD": 2393,
      "aled": 2394,
      "ece": 2395,
      "blast": 2396,
      "ked": 2397,
      "general": 2398,
      "err": 2399,
      "Asia": 2400,
      "revenue": 2401,
      "sid": 2402,
      "conference": 2403,
      "Airways": 2404,
      "career": 2405,
      "MP": 2406,
      "YO": 2407,
      "wood": 2408,
      "6666": 2409,
      "hours": 2410,
      "bound": 2411,
      "ife": 2412,
      "Ke": 2413,
      "pack": 2414,
      "Three": 2415,
      "okes": 2416,
      "ipp": 2417,
      "sched": 2418,
      "already": 2419,
      "goal": 2420,
      "Sharon": 2421,
      "Niger": 2422,
      "If": 2423,
      "dam": 2424,
      "icide": 2425,
      "emb": 2426,
      "overs": 2427,
      "personal": 2428,
      "clim": 2429,
      "CP": 2430,
      "George": 2431,
      "Hal": 2432,
      "efforts": 2433,
      "Back": 2434,
      "Service": 2435,
      "80": 2436,
      "ential": 2437,
      "markets": 2438,
      "defense": 2439,
      "Kar": 2440,
      "ST": 2441,
      "capt": 2442,
      "Franc": 2443,
      "book": 2444,
      "ospital": 2445,
      "Mal": 2446,
      "corporate": 2447,
      "ATHENS": 2448,
      "else": 2449,
      "firms": 2450,
      "gave": 2451,
      "ler": 2452,
      "struct": 2453,
      "Tok": 2454,
      "utch": 2455,
      "electron": 2456,
      "Au": 2457,
      "ues": 2458,
      "mult": 2459,
      "size": 2460,
      "withdraw": 2461,
      "recover": 2462,
      "itor": 2463,
      "current": 2464,
      "inals": 2465,
      "web": 2466,
      "enger": 2467,
      "vil": 2468,
      "undred": 2469,
      "expand": 2470,
      "Italian": 2471,
      "Fire": 2472,
      "store": 2473,
      "union": 2474,
      "makes": 2475,
      "civil": 2476,
      "raised": 2477,
      "parent": 2478,
      "Association": 2479,
      "imp": 2480,
      "Software": 2481,
      "CIS": 2482,
      "Put": 2483,
      "onto": 2484,
      "spam": 2485,
      "Louis": 2486,
      "ream": 2487,
      "aging": 2488,
      "box": 2489,
      "countries": 2490,
      "asket": 2491,
      "Kill": 2492,
      "ening": 2493,
      "trying": 2494,
      "worth": 2495,
      "astern": 2496,
      "26": 2497,
      "west": 2498,
      "allow": 2499,
      "resol": 2500,
      "Reserve": 2501,
      "NA": 2502,
      "They": 2503,
      "iance": 2504,
      "sug": 2505,
      "reached": 2506,
      "Im": 2507,
      "Sl": 2508,
      "Communications": 2509,
      "sale": 2510,
      "151": 2511,
      "weapons": 2512,
      "Tokyo": 2513,
      "lex": 2514,
      "concerns": 2515,
      "atell": 2516,
      "CISCO": 2517,
      "da": 2518,
      "continue": 2519,
      "Ivan": 2520,
      "charged": 2521,
      "enough": 2522,
      "White": 2523,
      "calls": 2524,
      "taken": 2525,
      "FRANCISCO": 2526,
      "Rad": 2527,
      "Hold": 2528,
      "candid": 2529,
      "don": 2530,
      "chester": 2531,
      "olf": 2532,
      "shop": 2533,
      "avail": 2534,
      "anced": 2535,
      "une": 2536,
      "seem": 2537,
      "outside": 2538,
      "cred": 2539,
      "Airlines": 2540,
      "Arsenal": 2541,
      "Council": 2542,
      "Dell": 2543,
      "looking": 2544,
      "Systems": 2545,
      "Bomb": 2546,
      "FT": 2547,
      "KYO": 2548,
      "block": 2549,
      "EC": 2550,
      "reve": 2551,
      "TOKYO": 2552,
      "Power": 2553,
      "Sur": 2554,
      "cover": 2555,
      "Earth": 2556,
      "Vo": 2557,
      "card": 2558,
      "yards": 2559,
      "GA": 2560,
      "wind": 2561,
      "anger": 2562,
      "rebels": 2563,
      "Tit": 2564,
      "within": 2565,
      "effort": 2566,
      "coll": 2567,
      "swe": 2568,
      "ily": 2569,
      "until": 2570,
      "arrested": 2571,
      "Tor": 2572,
      "rong": 2573,
      "enef": 2574,
      "ulation": 2575,
      "Stud": 2576,
      "starting": 2577,
      "leav": 2578,
      "slow": 2579,
      "teams": 2580,
      "failed": 2581,
      "Center": 2582,
      "Mos": 2583,
      "fav": 2584,
      "reme": 2585,
      "ains": 2586,
      "deliver": 2587,
      ").": 2588,
      "ED": 2589,
      "Law": 2590,
      "went": 2591,
      "selling": 2592,
      "giving": 2593,
      "itions": 2594,
      "airline": 2595,
      "stead": 2596,
      "competition": 2597,
      "35": 2598,
      "Dollar": 2599,
      "Gre": 2600,
      "trou": 2601,
      "occer": 2602,
      "Val": 2603,
      "file": 2604,
      "Miam": 2605,
      "local": 2606,
      "desktop": 2607,
      "pract": 2608,
      "continued": 2609,
      "domin": 2610,
      "Miami": 2611,
      "Cisco": 2612,
      "Time": 2613,
      "raf": 2614,
      "rian": 2615,
      "range": 2616,
      "question": 2617,
      "aring": 2618,
      "lege": 2619,
      "aimed": 2620,
      "tor": 2621,
      "Tai": 2622,
      "stake": 2623,
      "very": 2624,
      "dep": 2625,
      "retailer": 2626,
      "bes": 2627,
      "fresh": 2628,
      "enge": 2629,
      "hail": 2630,
      "spot": 2631,
      "THE": 2632,
      "flo": 2633,
      "rial": 2634,
      "Blue": 2635,
      "authorities": 2636,
      "Hew": 2637,
      "ert": 2638,
      "opposition": 2639,
      "spokes": 2640,
      "finance": 2641,
      "Cont": 2642,
      "previous": 2643,
      "Now": 2644,
      "fig": 2645,
      "office": 2646,
      "central": 2647,
      "Music": 2648,
      "ually": 2649,
      "Yasser": 2650,
      "center": 2651,
      "oung": 2652,
      "Plan": 2653,
      "Madr": 2654,
      "others": 2655,
      "rally": 2656,
      "suppl": 2657,
      "Cap": 2658,
      "analysts": 2659,
      "My": 2660,
      "invol": 2661,
      "Expl": 2662,
      "drive": 2663,
      "resign": 2664,
      "rising": 2665,
      "From": 2666,
      "Rock": 2667,
      "track": 2668,
      "Army": 2669,
      "asketball": 2670,
      "suggest": 2671,
      "self": 2672,
      "comes": 2673,
      "ift": 2674,
      "finally": 2675,
      "Palestinians": 2676,
      "charge": 2677,
      "firmed": 2678,
      "There": 2679,
      "Jul": 2680,
      "rej": 2681,
      "Christ": 2682,
      "Asian": 2683,
      "wants": 2684,
      "though": 2685,
      "disput": 2686,
      "delay": 2687,
      "stay": 2688,
      "seen": 2689,
      "download": 2690,
      "Je": 2691,
      "named": 2692,
      "pred": 2693,
      "pressure": 2694,
      "Sol": 2695,
      "bird": 2696,
      "inch": 2697,
      "Davis": 2698,
      "Hel": 2699,
      "RO": 2700,
      "once": 2701,
      "event": 2702,
      "each": 2703,
      "spending": 2704,
      "championship": 2705,
      "bill": 2706,
      "quarterback": 2707,
      "29": 2708,
      "name": 2709,
      "pon": 2710,
      "iven": 2711,
      "further": 2712,
      "Again": 2713,
      "2006": 2714,
      "strate": 2715,
      "ront": 2716,
      "Manchester": 2717,
      "FONT": 2718,
      "brow": 2719,
      "cri": 2720,
      "thousands": 2721,
      "ender": 2722,
      "body": 2723,
      "Day": 2724,
      "UL": 2725,
      "cour": 2726,
      "Madrid": 2727,
      "Prem": 2728,
      "certain": 2729,
      "DAD": 2730,
      "fired": 2731,
      "Mobile": 2732,
      "cris": 2733,
      "ournal": 2734,
      "Drug": 2735,
      "XP": 2736,
      "pan": 2737,
      "ude": 2738,
      "Enter": 2739,
      "BAGH": 2740,
      "Calif": 2741,
      "gains": 2742,
      "room": 2743,
      "flight": 2744,
      "policy": 2745,
      "BAGHDAD": 2746,
      "Tom": 2747,
      "sho": 2748,
      "travel": 2749,
      "filed": 2750,
      "executives": 2751,
      "Francisco": 2752,
      "unes": 2753,
      "investment": 2754,
      "toward": 2755,
      "Em": 2756,
      "Trade": 2757,
      "special": 2758,
      "vert": 2759,
      "rivals": 2760,
      "Pay": 2761,
      "rights": 2762,
      "ander": 2763,
      "AMD": 2764,
      "large": 2765,
      "pil": 2766,
      "ico": 2767,
      "chairman": 2768,
      "Stadium": 2769,
      "injury": 2770,
      "Nok": 2771,
      "atellite": 2772,
      "400": 2773,
      "ims": 2774,
      "designed": 2775,
      "operations": 2776,
      "commit": 2777,
      "woman": 2778,
      "insurance": 2779,
      "fraud": 2780,
      "urities": 2781,
      "shut": 2782,
      "fighting": 2783,
      "family": 2784,
      "children": 2785,
      "icip": 2786,
      "rovers": 2787,
      "estim": 2788,
      "crisis": 2789,
      "gers": 2790,
      "wash": 2791,
      "Motor": 2792,
      "AC": 2793,
      "ATE": 2794,
      "getting": 2795,
      "Park": 2796,
      "bas": 2797,
      "acce": 2798,
      "risk": 2799,
      ".'": 2800,
      "phy": 2801,
      "liament": 2802,
      "Nokia": 2803,
      "Mil": 2804,
      "bad": 2805,
      "ee": 2806,
      "equip": 2807,
      "HL": 2808,
      "hits": 2809,
      "onds": 2810,
      "icted": 2811,
      "That": 2812,
      "closed": 2813,
      "Dow": 2814,
      "supply": 2815,
      "benef": 2816,
      "sn": 2817,
      "ruling": 2818,
      "undreds": 2819,
      "CBS": 2820,
      "driv": 2821,
      "comb": 2822,
      "Prices": 2823,
      "Job": 2824,
      "Exchange": 2825,
      "powerful": 2826,
      "Stock": 2827,
      "Astro": 2828,
      "elt": 2829,
      "Bal": 2830,
      "Bowl": 2831,
      "sy": 2832,
      "western": 2833,
      "tour": 2834,
      "planned": 2835,
      "tee": 2836,
      "IC": 2837,
      "commer": 2838,
      "working": 2839,
      "Boeing": 2840,
      "dollars": 2841,
      "discuss": 2842,
      "holiday": 2843,
      "heavy": 2844,
      "Coast": 2845,
      "49": 2846,
      "Sil": 2847,
      "cle": 2848,
      "Central": 2849,
      "IE": 2850,
      "Tony": 2851,
      "dog": 2852,
      "ails": 2853,
      "Buy": 2854,
      "Nas": 2855,
      "Pan": 2856,
      "asked": 2857,
      "Congress": 2858,
      "Rod": 2859,
      "know": 2860,
      "times": 2861,
      "icit": 2862,
      "never": 2863,
      "Uk": 2864,
      "rob": 2865,
      "problems": 2866,
      "Fact": 2867,
      "Ir": 2868,
      "Milit": 2869,
      "canc": 2870,
      "Mex": 2871,
      "Some": 2872,
      "fri": 2873,
      "pair": 2874,
      "Dutch": 2875,
      "happ": 2876,
      "pled": 2877,
      "conv": 2878,
      "businesses": 2879,
      "ount": 2880,
      "cu": 2881,
      "inning": 2882,
      "import": 2883,
      "survey": 2884,
      "Johns": 2885,
      "turned": 2886,
      "Talks": 2887,
      "craft": 2888,
      "operation": 2889,
      "Ukra": 2890,
      "Ire": 2891,
      "area": 2892,
      "pick": 2893,
      "annual": 2894,
      "Exp": 2895,
      "investigation": 2896,
      "want": 2897,
      "think": 2898,
      "illa": 2899,
      "missing": 2900,
      "stores": 2901,
      "Delta": 2902,
      "attempt": 2903,
      "protest": 2904,
      "Italy": 2905,
      "UPD": 2906,
      "available": 2907,
      "fears": 2908,
      "writ": 2909,
      "runs": 2910,
      "TS": 2911,
      "lebr": 2912,
      "ounce": 2913,
      "spect": 2914,
      "army": 2915,
      "Ireland": 2916,
      "iding": 2917,
      "compl": 2918,
      "prime": 2919,
      "iffer": 2920,
      "food": 2921,
      "Islamic": 2922,
      "Astros": 2923,
      "AG": 2924,
      "Cru": 2925,
      "Hen": 2926,
      "chance": 2927,
      "Offic": 2928,
      "Johnson": 2929,
      "Tenn": 2930,
      "review": 2931,
      "playoff": 2932,
      "ANG": 2933,
      "provide": 2934,
      "Ryder": 2935,
      "UPDATE": 2936,
      "BE": 2937,
      "Four": 2938,
      "Po": 2939,
      "backs": 2940,
      "han": 2941,
      "sites": 2942,
      "End": 2943,
      "consid": 2944,
      "terrorism": 2945,
      "Singh": 2946,
      "expectations": 2947,
      "Taiwan": 2948,
      "issue": 2949,
      "ceed": 2950,
      "confirmed": 2951,
      "FA": 2952,
      "treat": 2953,
      "Yuk": 2954,
      "ula": 2955,
      "counter": 2956,
      "chips": 2957,
      "statement": 2958,
      "uced": 2959,
      "chnologies": 2960,
      "radio": 2961,
      "Wins": 2962,
      "log": 2963,
      ";,": 2964,
      "streng": 2965,
      "Treas": 2966,
      "hospital": 2967,
      "water": 2968,
      "itness": 2969,
      "Span": 2970,
      "development": 2971,
      "60": 2972,
      "inf": 2973,
      "ifth": 2974,
      "hope": 2975,
      "December": 2976,
      "Police": 2977,
      "Team": 2978,
      "consumers": 2979,
      "discover": 2980,
      "Angeles": 2981,
      "Yukos": 2982,
      "Call": 2983,
      "bor": 2984,
      "appro": 2985,
      "rules": 2986,
      "crow": 2987,
      "ya": 2988,
      "conn": 2989,
      "Rob": 2990,
      "Tour": 2991,
      "ery": 2992,
      "eric": 2993,
      "station": 2994,
      "leave": 2995,
      "rief": 2996,
      "above": 2997,
      "decided": 2998,
      "Seattle": 2999,
      "Paris": 3000,
      "private": 3001,
      "Minn": 3002,
      "baseball": 3003,
      "focus": 3004,
      "ctions": 3005,
      "Super": 3006,
      "Hait": 3007,
      "LS": 3008,
      "Football": 3009,
      "2003": 3010,
      "approved": 3011,
      "Look": 3012,
      "tell": 3013,
      "wal": 3014,
      "improve": 3015,
      "Mich": 3016,
      "Wi": 3017,
      "mort": 3018,
      "LA": 3019,
      "viron": 3020,
      "Woods": 3021,
      "You": 3022,
      "ease": 3023,
      "vot": 3024,
      "oming": 3025,
      "ini": 3026,
      "seed": 3027,
      "Ant": 3028,
      "holders": 3029,
      "Record": 3030,
      "unveiled": 3031,
      "daq": 3032,
      "Fi": 3033,
      "Fore": 3034,
      "mag": 3035,
      "los": 3036,
      "class": 3037,
      "LAN": 3038,
      "Sha": 3039,
      "anium": 3040,
      "ature": 3041,
      "ction": 3042,
      "purch": 3043,
      "tur": 3044,
      "wid": 3045,
      "olph": 3046,
      "ume": 3047,
      "Rich": 3048,
      "bn": 3049,
      "agu": 3050,
      "probe": 3051,
      "server": 3052,
      "Indust": 3053,
      "warning": 3054,
      "groups": 3055,
      "claimed": 3056,
      "kes": 3057,
      "tech": 3058,
      "regulators": 3059,
      "Putin": 3060,
      "Kash": 3061,
      "tough": 3062,
      "stit": 3063,
      "captain": 3064,
      "Disney": 3065,
      "GM": 3066,
      "tourn": 3067,
      "ixed": 3068,
      "defeat": 3069,
      "ria": 3070,
      "Fallujah": 3071,
      "Kashmir": 3072,
      "ari": 3073,
      "arriv": 3074,
      "separ": 3075,
      "suspected": 3076,
      "Tim": 3077,
      "uments": 3078,
      "controvers": 3079,
      "opened": 3080,
      "employees": 3081,
      "Global": 3082,
      "cos": 3083,
      "gents": 3084,
      "saf": 3085,
      "suicide": 3086,
      "Ty": 3087,
      "medi": 3088,
      "Foreign": 3089,
      "BR": 3090,
      "plant": 3091,
      "ockey": 3092,
      "pen": 3093,
      "atives": 3094,
      "shows": 3095,
      "clash": 3096,
      "equipment": 3097,
      "front": 3098,
      "ring": 3099,
      "merger": 3100,
      "Health": 3101,
      "effect": 3102,
      "Brown": 3103,
      "aking": 3104,
      "played": 3105,
      "debt": 3106,
      "Year": 3107,
      "atures": 3108,
      "color": 3109,
      "Launch": 3110,
      "OT": 3111,
      "augh": 3112,
      "generation": 3113,
      "dest": 3114,
      "given": 3115,
      "Strip": 3116,
      "vet": 3117,
      "ention": 3118,
      "Mont": 3119,
      "lands": 3120,
      "lawsuit": 3121,
      "later": 3122,
      "Data": 3123,
      "OK": 3124,
      "lish": 3125,
      "losing": 3126,
      "photo": 3127,
      "servers": 3128,
      "blood": 3129,
      "critic": 3130,
      "Bang": 3131,
      "ern": 3132,
      "check": 3133,
      "ars": 3134,
      "lose": 3135,
      "outlook": 3136,
      "faces": 3137,
      "Sk": 3138,
      "raise": 3139,
      "celebr": 3140,
      "roll": 3141,
      "ranked": 3142,
      "vention": 3143,
      "issues": 3144,
      "Indonesia": 3145,
      "NHL": 3146,
      "CHI": 3147,
      "Steve": 3148,
      "Cam": 3149,
      "Ford": 3150,
      "Pow": 3151,
      "mas": 3152,
      "asters": 3153,
      "awa": 3154,
      "increased": 3155,
      "guard": 3156,
      "building": 3157,
      ".\"": 3158,
      "AB": 3159,
      "along": 3160,
      "ilt": 3161,
      "ively": 3162,
      "Feder": 3163,
      "depend": 3164,
      "inks": 3165,
      "offers": 3166,
      "newsp": 3167,
      "Econ": 3168,
      "Pit": 3169,
      "bi": 3170,
      "added": 3171,
      "acquis": 3172,
      "hic": 3173,
      "arch": 3174,
      "ained": 3175,
      "moved": 3176,
      "north": 3177,
      "Greece": 3178,
      "Roy": 3179,
      "kept": 3180,
      "Minnes": 3181,
      "BER": 3182,
      "Its": 3183,
      "Sprint": 3184,
      "ource": 3185,
      "researchers": 3186,
      "Minnesota": 3187,
      "OP": 3188,
      "san": 3189,
      "iracy": 3190,
      "onald": 3191,
      "She": 3192,
      "jail": 3193,
      "administration": 3194,
      "urged": 3195,
      "closer": 3196,
      "spokesman": 3197,
      "Ze": 3198,
      "uary": 3199,
      "plom": 3200,
      "upgr": 3201,
      "Shi": 3202,
      "cat": 3203,
      "sex": 3204,
      "ilities": 3205,
      "Consum": 3206,
      "Technology": 3207,
      "holding": 3208,
      "ifying": 3209,
      "rout": 3210,
      "uled": 3211,
      "debut": 3212,
      "playing": 3213,
      "itional": 3214,
      "losses": 3215,
      "Detro": 3216,
      "project": 3217,
      "avoid": 3218,
      "Democratic": 3219,
      "Mike": 3220,
      "Naj": 3221,
      "itors": 3222,
      "elph": 3223,
      "Econom": 3224,
      "70": 3225,
      "umb": 3226,
      "slight": 3227,
      "Detroit": 3228,
      "elphia": 3229,
      "Field": 3230,
      "Rise": 3231,
      "tim": 3232,
      "devices": 3233,
      "ibility": 3234,
      "Rom": 3235,
      "Tra": 3236,
      "mal": 3237,
      "aland": 3238,
      "andal": 3239,
      "earth": 3240,
      "winter": 3241,
      "applications": 3242,
      "washington": 3243,
      "Grow": 3244,
      "oon": 3245,
      "posed": 3246,
      "Tele": 3247,
      "Market": 3248,
      "vironment": 3249,
      "washingtonpost": 3250,
      "forced": 3251,
      "wanted": 3252,
      "division": 3253,
      "browser": 3254,
      "staff": 3255,
      "uries": 3256,
      "militant": 3257,
      "Patri": 3258,
      "Labor": 3259,
      "batt": 3260,
      "communications": 3261,
      "July": 3262,
      "Najaf": 3263,
      "Rog": 3264,
      "differ": 3265,
      "lywood": 3266,
      "umped": 3267,
      "storage": 3268,
      "tournament": 3269,
      "ane": 3270,
      "forward": 3271,
      "serious": 3272,
      "Major": 3273,
      "fly": 3274,
      "mis": 3275,
      "ett": 3276,
      "loc": 3277,
      "received": 3278,
      "fifth": 3279,
      "wa": 3280,
      "weight": 3281,
      "Server": 3282,
      "yle": 3283,
      "illing": 3284,
      "improv": 3285,
      "proper": 3286,
      "Atlanta": 3287,
      "Port": 3288,
      "role": 3289,
      "create": 3290,
      "related": 3291,
      "MW": 3292,
      "rev": 3293,
      "bles": 3294,
      "carry": 3295,
      "single": 3296,
      "rocket": 3297,
      "January": 3298,
      "Cardinals": 3299,
      "Hall": 3300,
      "Ow": 3301,
      "ma": 3302,
      "Chelse": 3303,
      "partners": 3304,
      "Don": 3305,
      "Home": 3306,
      "signs": 3307,
      "SEC": 3308,
      "wounded": 3309,
      "Virginia": 3310,
      "Crude": 3311,
      "Saf": 3312,
      "quir": 3313,
      "missed": 3314,
      "hands": 3315,
      "wild": 3316,
      "atory": 3317,
      "appoint": 3318,
      "tegr": 3319,
      "drugs": 3320,
      "MC": 3321,
      "Mass": 3322,
      "sets": 3323,
      "anks": 3324,
      "meas": 3325,
      "sources": 3326,
      "Oh": 3327,
      "tight": 3328,
      "looks": 3329,
      "Chelsea": 3330,
      "ded": 3331,
      "zz": 3332,
      "ilty": 3333,
      "Adv": 3334,
      "ruled": 3335,
      "Factor": 3336,
      "Coun": 3337,
      "ences": 3338,
      "Nasdaq": 3339,
      "Sign": 3340,
      "cam": 3341,
      "pound": 3342,
      "inger": 3343,
      "Class": 3344,
      "Office": 3345,
      "distribut": 3346,
      "Get": 3347,
      "ored": 3348,
      "reason": 3349,
      "pool": 3350,
      "experts": 3351,
      "Karz": 3352,
      "Low": 3353,
      "tainment": 3354,
      "Philipp": 3355,
      "successful": 3356,
      "Bob": 3357,
      "didn": 3358,
      "gage": 3359,
      "hy": 3360,
      "finish": 3361,
      "Spanish": 3362,
      "rebound": 3363,
      "sett": 3364,
      "networks": 3365,
      "Zealand": 3366,
      "Lu": 3367,
      "Tiger": 3368,
      "mach": 3369,
      "rust": 3370,
      "Stew": 3371,
      "Mars": 3372,
      "Korean": 3373,
      "31": 3374,
      "jump": 3375,
      "ids": 3376,
      "vehic": 3377,
      "CAGO": 3378,
      "Toronto": 3379,
      "Baseball": 3380,
      "mur": 3381,
      "Quarter": 3382,
      "Nextel": 3383,
      "CHICAGO": 3384,
      "Karzai": 3385,
      "fort": 3386,
      "Form": 3387,
      "decl": 3388,
      "increasing": 3389,
      "Powell": 3390,
      "basketball": 3391,
      "advert": 3392,
      "ech": 3393,
      "fox": 3394,
      "Beij": 3395,
      "joint": 3396,
      "Hollywood": 3397,
      "Howard": 3398,
      "iet": 3399,
      "Station": 3400,
      "NewsFactor": 3401,
      "enez": 3402,
      "commercial": 3403,
      "bs": 3404,
      "angers": 3405,
      "Stewart": 3406,
      "Beijing": 3407,
      "Host": 3408,
      "pace": 3409,
      "Insur": 3410,
      "spac": 3411,
      "plane": 3412,
      "join": 3413,
      "Company": 3414,
      "minutes": 3415,
      "tem": 3416,
      "igan": 3417,
      "surv": 3418,
      "started": 3419,
      "Electron": 3420,
      "accounting": 3421,
      "Carol": 3422,
      "fun": 3423,
      "What": 3424,
      "Eag": 3425,
      "Hop": 3426,
      "citing": 3427,
      "iT": 3428,
      "south": 3429,
      "finals": 3430,
      "Irish": 3431,
      "GE": 3432,
      "cel": 3433,
      "ady": 3434,
      "45": 3435,
      "Div": 3436,
      "ville": 3437,
      "ps": 3438,
      "iox": 3439,
      "Scientists": 3440,
      "threatened": 3441,
      "debate": 3442,
      "proposed": 3443,
      "Senate": 3444,
      "changes": 3445,
      "Cy": 3446,
      "Sum": 3447,
      "streak": 3448,
      "Work": 3449,
      "Warner": 3450,
      "cow": 3451,
      "offensive": 3452,
      "ival": 3453,
      "average": 3454,
      "Mexico": 3455,
      "recall": 3456,
      "har": 3457,
      "huge": 3458,
      "acquire": 3459,
      "boss": 3460,
      "doc": 3461,
      "gins": 3462,
      "lot": 3463,
      "ruck": 3464,
      "Fe": 3465,
      "oric": 3466,
      "winner": 3467,
      "homes": 3468,
      "Philad": 3469,
      "mom": 3470,
      "whose": 3471,
      "content": 3472,
      "evidence": 3473,
      "doesn": 3474,
      "Turkey": 3475,
      "ova": 3476,
      "Networks": 3477,
      "Supreme": 3478,
      "Philadelphia": 3479,
      "Found": 3480,
      "Iv": 3481,
      "gency": 3482,
      "eda": 3483,
      "storm": 3484,
      "protect": 3485,
      "seeking": 3486,
      "kidnapped": 3487,
      "Ukraine": 3488,
      "iTunes": 3489,
      ".\\": 3490,
      "PT": 3491,
      "die": 3492,
      "vend": 3493,
      "agree": 3494,
      "300": 3495,
      "64": 3496,
      "75": 3497,
      "stage": 3498,
      "screen": 3499,
      "NL": 3500,
      "Qa": 3501,
      "hundreds": 3502,
      "vast": 3503,
      "thought": 3504,
      "apparent": 3505,
      "officer": 3506,
      "crimin": 3507,
      "noon": 3508,
      "confidence": 3509,
      "Donald": 3510,
      "cur": 3511,
      "gam": 3512,
      "assa": 3513,
      "ellig": 3514,
      "placed": 3515,
      "Firefox": 3516,
      "leaving": 3517,
      "porters": 3518,
      "film": 3519,
      "Election": 3520,
      "AOL": 3521,
      "Hit": 3522,
      "patch": 3523,
      "sit": 3524,
      "verd": 3525,
      "Reg": 3526,
      "cleric": 3527,
      "code": 3528,
      "Week": 3529,
      "became": 3530,
      "returned": 3531,
      "Den": 3532,
      "iment": 3533,
      "beating": 3534,
      "offered": 3535,
      "safety": 3536,
      "Abu": 3537,
      "Dan": 3538,
      "Fund": 3539,
      "LO": 3540,
      "Spe": 3541,
      "lic": 3542,
      "spy": 3543,
      "Palm": 3544,
      "kick": 3545,
      "non": 3546,
      "remains": 3547,
      ";.": 3548,
      "bol": 3549,
      "ada": 3550,
      "boy": 3551,
      "parliament": 3552,
      "Masters": 3553,
      "Sal": 3554,
      "Tri": 3555,
      "device": 3556,
      "goes": 3557,
      "processor": 3558,
      "summer": 3559,
      "fear": 3560,
      "squ": 3561,
      "ule": 3562,
      "witness": 3563,
      "ado": 3564,
      "having": 3565,
      "ials": 3566,
      "suits": 3567,
      "consider": 3568,
      "Cut": 3569,
      "Sadr": 3570,
      "irl": 3571,
      "suspended": 3572,
      "ko": 3573,
      "spr": 3574,
      "expects": 3575,
      "Manag": 3576,
      "Ariz": 3577,
      "appeal": 3578,
      "Patriots": 3579,
      "LOS": 3580,
      "itt": 3581,
      "icon": 3582,
      "Qaeda": 3583,
      "Million": 3584,
      "Rel": 3585,
      "rig": 3586,
      "flu": 3587,
      "provider": 3588,
      "Party": 3589,
      "potential": 3590,
      "rejected": 3591,
      "Ohio": 3592,
      "Alex": 3593,
      "assy": 3594,
      "course": 3595,
      "olphins": 3596,
      "65": 3597,
      "Last": 3598,
      "Mor": 3599,
      "Pen": 3600,
      "member": 3601,
      "leads": 3602,
      "rict": 3603,
      "send": 3604,
      "Enron": 3605,
      "dropped": 3606,
      "Carolina": 3607,
      "Mem": 3608,
      "bt": 3609,
      "ination": 3610,
      "owners": 3611,
      "retire": 3612,
      "parts": 3613,
      "carrier": 3614,
      "Christmas": 3615,
      "Dod": 3616,
      "bre": 3617,
      "lad": 3618,
      "pain": 3619,
      "total": 3620,
      "confl": 3621,
      "Execut": 3622,
      "deficit": 3623,
      "interim": 3624,
      "terrorist": 3625,
      "copy": 3626,
      "challenge": 3627,
      "electronics": 3628,
      "acquisition": 3629,
      "FC": 3630,
      "iny": 3631,
      "amb": 3632,
      "millions": 3633,
      "doz": 3634,
      "ATO": 3635,
      "helps": 3636,
      "Defense": 3637,
      "diplom": 3638,
      "TOR": 3639,
      "border": 3640,
      "acts": 3641,
      "oles": 3642,
      "plat": 3643,
      "astron": 3644,
      "Services": 3645,
      "signific": 3646,
      "audi": 3647,
      "supplies": 3648,
      "Haiti": 3649,
      "AK": 3650,
      "CD": 3651,
      "Die": 3652,
      "Times": 3653,
      "rush": 3654,
      "headed": 3655,
      "Jets": 3656,
      "person": 3657,
      "continues": 3658,
      "director": 3659,
      "dispute": 3660,
      "Bonds": 3661,
      "ansas": 3662,
      "Media": 3663,
      "Gree": 3664,
      "ny": 3665,
      "soccer": 3666,
      "laws": 3667,
      "Nigeria": 3668,
      "approach": 3669,
      "Michigan": 3670,
      ".&": 3671,
      "His": 3672,
      "Sir": 3673,
      "wait": 3674,
      "ati": 3675,
      "Charg": 3676,
      "Organ": 3677,
      "gery": 3678,
      "futures": 3679,
      "MSN": 3680,
      "Bry": 3681,
      "Gar": 3682,
      "Oak": 3683,
      "states": 3684,
      "ically": 3685,
      "save": 3686,
      "brought": 3687,
      "Conference": 3688,
      "scheduled": 3689,
      "Eagles": 3690,
      "James": 3691,
      "Susp": 3692,
      "medical": 3693,
      "Study": 3694,
      "important": 3695,
      "Ko": 3696,
      "SA": 3697,
      "ongh": 3698,
      "edge": 3699,
      "illegal": 3700,
      "chain": 3701,
      "decline": 3702,
      "auto": 3703,
      "Camp": 3704,
      "Ur": 3705,
      "Higher": 3706,
      "Despite": 3707,
      "initial": 3708,
      "nations": 3709,
      "orders": 3710,
      "scandal": 3711,
      "highest": 3712,
      "lined": 3713,
      "hostages": 3714,
      "graph": 3715,
      "Hus": 3716,
      "Thail": 3717,
      "Ut": 3718,
      "oud": 3719,
      "gether": 3720,
      "internet": 3721,
      ",\\": 3722,
      "CAR": 3723,
      "NN": 3724,
      "Source": 3725,
      "aut": 3726,
      "young": 3727,
      "orney": 3728,
      "Ram": 3729,
      "sil": 3730,
      "uster": 3731,
      "Peace": 3732,
      "oul": 3733,
      "recently": 3734,
      "Hamas": 3735,
      ";-": 3736,
      "Bur": 3737,
      "Cit": 3738,
      "iar": 3739,
      "ecraft": 3740,
      "commission": 3741,
      "Ariel": 3742,
      "Thailand": 3743,
      "Are": 3744,
      "Cost": 3745,
      "wel": 3746,
      "ples": 3747,
      "result": 3748,
      "defin": 3749,
      "saw": 3750,
      "bert": 3751,
      "onduct": 3752,
      "ELES": 3753,
      "memory": 3754,
      "55": 3755,
      "cho": 3756,
      "bey": 3757,
      "emic": 3758,
      "endo": 3759,
      "note": 3760,
      "PCs": 3761,
      "Hot": 3762,
      "itzer": 3763,
      "izon": 3764,
      "secutive": 3765,
      "ANGELES": 3766,
      "Free": 3767,
      "Jeff": 3768,
      "ading": 3769,
      "built": 3770,
      "Steel": 3771,
      "favor": 3772,
      "iring": 3773,
      "Good": 3774,
      "needed": 3775,
      "Agency": 3776,
      "explosion": 3777,
      "slightly": 3778,
      "lawy": 3779,
      "HO": 3780,
      "base": 3781,
      "hurt": 3782,
      "ients": 3783,
      "sto": 3784,
      "sector": 3785,
      "type": 3786,
      "moon": 3787,
      "hostile": 3788,
      "elligence": 3789,
      "coup": 3790,
      "Rebel": 3791,
      "scri": 3792,
      "aircraft": 3793,
      "Airbus": 3794,
      "easy": 3795,
      "Smith": 3796,
      "problem": 3797,
      "Jean": 3798,
      "Ben": 3799,
      "Way": 3800,
      "rating": 3801,
      "consecutive": 3802,
      "afternoon": 3803,
      "poor": 3804,
      "Corpor": 3805,
      "needs": 3806,
      "virus": 3807,
      "Swed": 3808,
      "Angels": 3809,
      "Merck": 3810,
      "proposal": 3811,
      "Cubs": 3812,
      "tools": 3813,
      "Lab": 3814,
      "fair": 3815,
      "ute": 3816,
      "prosecut": 3817,
      "istic": 3818,
      "coal": 3819,
      "Jose": 3820,
      "sanctions": 3821,
      "bell": 3822,
      "cir": 3823,
      "fix": 3824,
      "sending": 3825,
      "uting": 3826,
      "ashed": 3827,
      "below": 3828,
      "Securities": 3829,
      "custo": 3830,
      "Dolphins": 3831,
      "Government": 3832,
      "Venez": 3833,
      "hun": 3834,
      "ority": 3835,
      "immedi": 3836,
      "invent": 3837,
      "sharply": 3838,
      "longer": 3839,
      "developed": 3840,
      "Stores": 3841,
      "significant": 3842,
      "Venezuel": 3843,
      "90": 3844,
      "Case": 3845,
      "award": 3846,
      "appeared": 3847,
      "manufactur": 3848,
      "Lar": 3849,
      "Targ": 3850,
      "Take": 3851,
      "labor": 3852,
      "elves": 3853,
      "Force": 3854,
      "Marsh": 3855,
      "candidate": 3856,
      "Act": 3857,
      "Nik": 3858,
      "lab": 3859,
      "issued": 3860,
      "Cell": 3861,
      "Us": 3862,
      "cas": 3863,
      "theast": 3864,
      "struck": 3865,
      "chen": 3866,
      "udget": 3867,
      "izing": 3868,
      "passed": 3869,
      "newspaper": 3870,
      "FOR": 3871,
      "Ok": 3872,
      "arian": 3873,
      "acked": 3874,
      "talk": 3875,
      "concern": 3876,
      "Mush": 3877,
      "hor": 3878,
      "inet": 3879,
      "estic": 3880,
      "blow": 3881,
      "aily": 3882,
      "ressed": 3883,
      "Coach": 3884,
      "pointed": 3885,
      "ification": 3886,
      "IPO": 3887,
      "inflation": 3888,
      "tie": 3889,
      "unk": 3890,
      "bling": 3891,
      "Classic": 3892,
      "Life": 3893,
      "Mets": 3894,
      "PS": 3895,
      "integr": 3896,
      "these": 3897,
      "Stri": 3898,
      "Pakistani": 3899,
      "Moz": 3900,
      "Prix": 3901,
      ",\"": 3902,
      "iod": 3903,
      "vs": 3904,
      "yard": 3905,
      "together": 3906,
      "oded": 3907,
      "buying": 3908,
      "caused": 3909,
      "38": 3910,
      "Fla": 3911,
      "Loss": 3912,
      "lay": 3913,
      "mind": 3914,
      "igning": 3915,
      "Republic": 3916,
      "ipped": 3917,
      "Argent": 3918,
      "beaten": 3919,
      "credit": 3920,
      "Ivory": 3921,
      "Ra": 3922,
      "roy": 3923,
      "forms": 3924,
      "weather": 3925,
      "sharing": 3926,
      "Novell": 3927,
      "application": 3928,
      "settlement": 3929,
      "friend": 3930,
      "Of": 3931,
      "Viox": 3932,
      "session": 3933,
      "request": 3934,
      "While": 3935,
      "Singap": 3936,
      "Vioxx": 3937,
      "kne": 3938,
      "span": 3939,
      "enced": 3940,
      "democr": 3941,
      "broadband": 3942,
      "Radio": 3943,
      "Jobs": 3944,
      "Singapore": 3945,
      "Bro": 3946,
      "Dou": 3947,
      "Jav": 3948,
      "song": 3949,
      "update": 3950,
      "hai": 3951,
      "encies": 3952,
      "Dead": 3953,
      "Prod": 3954,
      "negotiations": 3955,
      "OPEC": 3956,
      "cing": 3957,
      "journal": 3958,
      "island": 3959,
      "Photo": 3960,
      "guilty": 3961,
      "striker": 3962,
      "Martin": 3963,
      "Against": 3964,
      "Sadd": 3965,
      "VI": 3966,
      "Vict": 3967,
      "green": 3968,
      "threw": 3969,
      "represent": 3970,
      "aces": 3971,
      "tonight": 3972,
      "foot": 3973,
      "missile": 3974,
      "features": 3975,
      "moves": 3976,
      "figures": 3977,
      "Mushar": 3978,
      "Ky": 3979,
      "Southern": 3980,
      "Financial": 3981,
      "funds": 3982,
      "Greek": 3983,
      "Musharraf": 3984,
      "armed": 3985,
      "aker": 3986,
      "ONTO": 3987,
      "publican": 3988,
      "himself": 3989,
      "pilots": 3990,
      "TORONTO": 3991,
      "DS": 3992,
      "King": 3993,
      "Sans": 3994,
      "WA": 3995,
      "sports": 3996,
      "idge": 3997,
      "Thom": 3998,
      "rule": 3999,
      "revealed": 4000,
      "batter": 4001,
      "mn": 4002,
      "omber": 4003,
      "Conn": 4004,
      "broker": 4005,
      "training": 4006,
      "insurgents": 4007,
      "Acc": 4008,
      "Federer": 4009,
      "Saddam": 4010,
      "Fann": 4011,
      "Saudi": 4012,
      "Ve": 4013,
      "jects": 4014,
      "inal": 4015,
      "sees": 4016,
      "PGA": 4017,
      "innings": 4018,
      "deploy": 4019,
      "kills": 4020,
      "voters": 4021,
      "Arizona": 4022,
      "Fannie": 4023,
      "Dall": 4024,
      "Drop": 4025,
      "catch": 4026,
      "anim": 4027,
      "eline": 4028,
      "count": 4029,
      "operator": 4030,
      "BI": 4031,
      "SBC": 4032,
      "UT": 4033,
      "arial": 4034,
      "iller": 4035,
      "period": 4036,
      "2000": 4037,
      "ALL": 4038,
      "linked": 4039,
      "programs": 4040,
      "Motors": 4041,
      "Middle": 4042,
      "assault": 4043,
      "Oakland": 4044,
      "dro": 4045,
      "gives": 4046,
      "arms": 4047,
      "Republican": 4048,
      "movie": 4049,
      "Malays": 4050,
      "Explor": 4051,
      "Gra": 4052,
      "Sant": 4053,
      "hur": 4054,
      "sal": 4055,
      "worst": 4056,
      "secure": 4057,
      "decade": 4058,
      "published": 4059,
      "Trans": 4060,
      "refuge": 4061,
      "Pacific": 4062,
      "Formula": 4063,
      "Bell": 4064,
      "PAR": 4065,
      "interview": 4066,
      "lift": 4067,
      "bably": 4068,
      "sweep": 4069,
      "Bron": 4070,
      "Nint": 4071,
      "Vol": 4072,
      "fect": 4073,
      "itz": 4074,
      "helvet": 4075,
      "Leban": 4076,
      "Serif": 4077,
      "=\"#": 4078,
      "=\"-": 4079,
      "freed": 4080,
      "666666": 4081,
      "verdana": 4082,
      "helvetica": 4083,
      "paid": 4084,
      "orrow": 4085,
      "uranium": 4086,
      "Step": 4087,
      "planning": 4088,
      "different": 4089,
      "Liver": 4090,
      "ram": 4091,
      "things": 4092,
      "progress": 4093,
      "decades": 4094,
      "respons": 4095,
      "pulled": 4096,
      "NYSE": 4097,
      "practice": 4098,
      "Kansas": 4099,
      "Old": 4100,
      "Rangers": 4101,
      "rees": 4102,
      "ansion": 4103,
      "extra": 4104,
      "apping": 4105,
      "passes": 4106,
      "onductor": 4107,
      "Nintendo": 4108,
      "33": 4109,
      "Western": 4110,
      "Chairman": 4111,
      "announce": 4112,
      "backed": 4113,
      "announcement": 4114,
      "reduce": 4115,
      "bombing": 4116,
      "protection": 4117,
      "conflict": 4118,
      "Pu": 4119,
      "Si": 4120,
      "ele": 4121,
      "environment": 4122,
      "toll": 4123,
      "seeks": 4124,
      "ordered": 4125,
      "helping": 4126,
      "shareholders": 4127,
      "banks": 4128,
      "Terror": 4129,
      "spacecraft": 4130,
      "Brow": 4131,
      "mers": 4132,
      "lett": 4133,
      "enterprise": 4134,
      "Earnings": 4135,
      "knock": 4136,
      "Sat": 4137,
      "Sam": 4138,
      "Start": 4139,
      "owner": 4140,
      "extended": 4141,
      "regular": 4142,
      "planes": 4143,
      "Engine": 4144,
      "files": 4145,
      "strategy": 4146,
      "Dallas": 4147,
      "Minist": 4148,
      "independ": 4149,
      "teen": 4150,
      "brok": 4151,
      "Bid": 4152,
      "tack": 4153,
      "coast": 4154,
      "doct": 4155,
      "introduced": 4156,
      "recovery": 4157,
      "shopping": 4158,
      "Mag": 4159,
      "VER": 4160,
      "uan": 4161,
      "techn": 4162,
      "Ext": 4163,
      "launches": 4164,
      "challeng": 4165,
      "41": 4166,
      "quake": 4167,
      "historic": 4168,
      "mitted": 4169,
      "flood": 4170,
      "controversial": 4171,
      "Cing": 4172,
      "Video": 4173,
      "throw": 4174,
      "depart": 4175,
      "kei": 4176,
      "Sea": 4177,
      "Northern": 4178,
      "collect": 4179,
      "Nikkei": 4180,
      "Celt": 4181,
      "Watch": 4182,
      "termin": 4183,
      "Energy": 4184,
      "brand": 4185,
      "ennis": 4186,
      "About": 4187,
      "adesh": 4188,
      "massive": 4189,
      "damage": 4190,
      "Cingular": 4191,
      "48": 4192,
      "Food": 4193,
      "surpr": 4194,
      "urricanes": 4195,
      "(\\$": 4196,
      "PH": 4197,
      "auction": 4198,
      "jet": 4199,
      "uation": 4200,
      "icated": 4201,
      "imir": 4202,
      "Into": 4203,
      "spent": 4204,
      "publish": 4205,
      "appers": 4206,
      "producer": 4207,
      "subsid": 4208,
      "Verizon": 4209,
      "Moscow": 4210,
      "Gets": 4211,
      "fine": 4212,
      "satellite": 4213,
      "orig": 4214,
      "ulf": 4215,
      "itself": 4216,
      "ported": 4217,
      "questions": 4218,
      "Justice": 4219,
      "sym": 4220,
      "Fer": 4221,
      "Kong": 4222,
      "wrong": 4223,
      "raising": 4224,
      "setting": 4225,
      "Expos": 4226,
      "Plans": 4227,
      "venture": 4228,
      "Cle": 4229,
      "wards": 4230,
      "iscal": 4231,
      "terms": 4232,
      "Stand": 4233,
      "warns": 4234,
      "crew": 4235,
      "Head": 4236,
      "Tosh": 4237,
      "complete": 4238,
      "Mozilla": 4239,
      "Dame": 4240,
      "Hu": 4241,
      "Vlad": 4242,
      "bot": 4243,
      "gather": 4244,
      "quar": 4245,
      "sue": 4246,
      "phoon": 4247,
      "prevent": 4248,
      "Notre": 4249,
      "Utah": 4250,
      "Broad": 4251,
      "Kills": 4252,
      "sport": 4253,
      "earing": 4254,
      "worries": 4255,
      "black": 4256,
      "Iraqis": 4257,
      "marketing": 4258,
      "showing": 4259,
      "Amaz": 4260,
      "Okla": 4261,
      "Blast": 4262,
      "Gun": 4263,
      "MOS": 4264,
      "surgery": 4265,
      "Technologies": 4266,
      "Clevel": 4267,
      "Hong": 4268,
      "prec": 4269,
      "isn": 4270,
      "words": 4271,
      "ancing": 4272,
      "cutting": 4273,
      "Scott": 4274,
      "conduct": 4275,
      "Roger": 4276,
      "Cleveland": 4277,
      "CS": 4278,
      "cross": 4279,
      "ional": 4280,
      "omer": 4281,
      "ola": 4282,
      "remained": 4283,
      "breaking": 4284,
      "arrived": 4285,
      "Division": 4286,
      "CR": 4287,
      "Jer": 4288,
      "Nep": 4289,
      "danger": 4290,
      "gia": 4291,
      "probably": 4292,
      "trip": 4293,
      "calling": 4294,
      "touchdowns": 4295,
      "mic": 4296,
      "ires": 4297,
      "ulner": 4298,
      "shr": 4299,
      "Frank": 4300,
      "ORE": 4301,
      "legis": 4302,
      "tests": 4303,
      "broke": 4304,
      "train": 4305,
      "fielder": 4306,
      "DAY": 4307,
      "approval": 4308,
      "minute": 4309,
      "Annan": 4310,
      "Liverpool": 4311,
      "PA": 4312,
      "ios": 4313,
      "yen": 4314,
      "common": 4315,
      "plays": 4316,
      "computing": 4317,
      "books": 4318,
      "domestic": 4319,
      "purchase": 4320,
      "Consumer": 4321,
      "Growth": 4322,
      "Vladimir": 4323,
      "):": 4324,
      "Beck": 4325,
      "Jim": 4326,
      "ype": 4327,
      "why": 4328,
      "okie": 4329,
      "ensions": 4330,
      "relief": 4331,
      "Color": 4332,
      "bing": 4333,
      "disappoint": 4334,
      "targets": 4335,
      "murder": 4336,
      "Amazon": 4337,
      "Jacks": 4338,
      "Lat": 4339,
      "enrich": 4340,
      "icult": 4341,
      "shock": 4342,
      "cool": 4343,
      "goals": 4344,
      "pose": 4345,
      "ffic": 4346,
      "subscri": 4347,
      "Bryant": 4348,
      "Find": 4349,
      "done": 4350,
      "Under": 4351,
      "English": 4352,
      "renew": 4353,
      "Greenspan": 4354,
      "Jackson": 4355,
      "II": 4356,
      "eling": 4357,
      "surprise": 4358,
      "something": 4359,
      "Club": 4360,
      "critical": 4361,
      "Hewlett": 4362,
      "advertising": 4363,
      "Ball": 4364,
      "Jason": 4365,
      "Pent": 4366,
      "akers": 4367,
      "Microsystems": 4368,
      "facing": 4369,
      "burgh": 4370,
      "Hum": 4371,
      "Long": 4372,
      "core": 4373,
      "girl": 4374,
      "mut": 4375,
      "deep": 4376,
      "Price": 4377,
      "Retail": 4378,
      "Bangl": 4379,
      "Most": 4380,
      "cause": 4381,
      "positive": 4382,
      "highs": 4383,
      "commun": 4384,
      "Mae": 4385,
      "Prize": 4386,
      "Packard": 4387,
      "knee": 4388,
      "Toy": 4389,
      "ding": 4390,
      "mart": 4391,
      "raig": 4392,
      "Still": 4393,
      "appears": 4394,
      "wounding": 4395,
      "Indonesian": 4396,
      "believe": 4397,
      "impact": 4398,
      "Bangladesh": 4399,
      "Mary": 4400,
      "Zim": 4401,
      "replace": 4402,
      "oppon": 4403,
      "anticip": 4404,
      "Express": 4405,
      "sharp": 4406,
      "iba": 4407,
      "deadline": 4408,
      "Georgia": 4409,
      "accept": 4410,
      "Executive": 4411,
      "BO": 4412,
      "Cuts": 4413,
      "Fight": 4414,
      "Lank": 4415,
      "pict": 4416,
      "voting": 4417,
      "College": 4418,
      "struction": 4419,
      "delayed": 4420,
      "Her": 4421,
      "mos": 4422,
      "output": 4423,
      "Chris": 4424,
      "spark": 4425,
      "blue": 4426,
      "demands": 4427,
      "hoping": 4428,
      "moving": 4429,
      "standard": 4430,
      "struggling": 4431,
      "AU": 4432,
      "Six": 4433,
      "bury": 4434,
      "dy": 4435,
      "hon": 4436,
      "orts": 4437,
      "abinet": 4438,
      "aves": 4439,
      "2002": 4440,
      "worldwide": 4441,
      "Death": 4442,
      "Desktop": 4443,
      "initi": 4444,
      "discovered": 4445,
      "Toshiba": 4446,
      "34": 4447,
      "va": 4448,
      "allowed": 4449,
      "Rele": 4450,
      "cricket": 4451,
      "steps": 4452,
      "broadcast": 4453,
      "Industry": 4454,
      "fiscal": 4455,
      "oes": 4456,
      "seconds": 4457,
      "Colin": 4458,
      "troubled": 4459,
      "Treasury": 4460,
      "Pitts": 4461,
      "moment": 4462,
      "pts": 4463,
      "heim": 4464,
      "Scot": 4465,
      "beginning": 4466,
      "mortgage": 4467,
      "Roman": 4468,
      "June": 4469,
      "Vote": 4470,
      "income": 4471,
      "tha": 4472,
      "oping": 4473,
      "izer": 4474,
      "heading": 4475,
      "surge": 4476,
      "Sudanese": 4477,
      "optim": 4478,
      "panel": 4479,
      "Lower": 4480,
      "ml": 4481,
      "nam": 4482,
      "isted": 4483,
      "Percent": 4484,
      "resolution": 4485,
      "Explorer": 4486,
      "DE": 4487,
      "Digital": 4488,
      "Ey": 4489,
      "Hits": 4490,
      "Nob": 4491,
      "Rises": 4492,
      "Sams": 4493,
      "dick": 4494,
      "keeping": 4495,
      "hole": 4496,
      "Bet": 4497,
      "Ly": 4498,
      "cable": 4499,
      "pted": 4500,
      "arrow": 4501,
      "spread": 4502,
      "ucks": 4503,
      "ATI": 4504,
      "tried": 4505,
      "Phill": 4506,
      "Board": 4507,
      "college": 4508,
      "Posts": 4509,
      "benefits": 4510,
      "ACE": 4511,
      "Gl": 4512,
      "Near": 4513,
      "igers": 4514,
      "clinch": 4515,
      "string": 4516,
      "exploded": 4517,
      "install": 4518,
      "Hewitt": 4519,
      "Dodgers": 4520,
      "Ath": 4521,
      "Hard": 4522,
      "moun": 4523,
      "sound": 4524,
      "heating": 4525,
      "hase": 4526,
      "Ship": 4527,
      "athon": 4528,
      "Sees": 4529,
      "telephone": 4530,
      "volution": 4531,
      "message": 4532,
      "Has": 4533,
      "TE": 4534,
      "ray": 4535,
      "inth": 4536,
      "Braves": 4537,
      "Colorado": 4538,
      "Pittsburgh": 4539,
      "Samsung": 4540,
      "veter": 4541,
      "Chip": 4542,
      "score": 4543,
      "Spam": 4544,
      "falling": 4545,
      "watchdog": 4546,
      "Bern": 4547,
      "Zimbab": 4548,
      "FO": 4549,
      "Judge": 4550,
      "UE": 4551,
      "Vik": 4552,
      "quit": 4553,
      "Premier": 4554,
      "Sri": 4555,
      "Turn": 4556,
      "hous": 4557,
      "mine": 4558,
      "ni": 4559,
      "eman": 4560,
      "Another": 4561,
      "inside": 4562,
      "ashes": 4563,
      "filing": 4564,
      "Baltim": 4565,
      "platform": 4566,
      "Zimbabwe": 4567,
      "Baltimore": 4568,
      "budget": 4569,
      "joy": 4570,
      "ument": 4571,
      "Chall": 4572,
      "intelligence": 4573,
      "soldier": 4574,
      "familiar": 4575,
      "changed": 4576,
      "Poll": 4577,
      "fle": 4578,
      "spl": 4579,
      "igr": 4580,
      "plot": 4581,
      "answ": 4582,
      "scient": 4583,
      "flat": 4584,
      "Outlook": 4585,
      "Os": 4586,
      "pi": 4587,
      "omin": 4588,
      "2001": 4589,
      "descri": 4590,
      "species": 4591,
      "Oklahom": 4592,
      "champions": 4593,
      "image": 4594,
      "Chen": 4595,
      "flag": 4596,
      "pitcher": 4597,
      "Java": 4598,
      "PARIS": 4599,
      "600": 4600,
      "Five": 4601,
      "Il": 4602,
      "zone": 4603,
      "atab": 4604,
      "COW": 4605,
      "suffered": 4606,
      "Roddick": 4607,
      "Oklahoma": 4608,
      "LI": 4609,
      "ki": 4610,
      "lack": 4611,
      "twice": 4612,
      "Manning": 4613,
      "developing": 4614,
      "deadly": 4615,
      "School": 4616,
      "levels": 4617,
      "option": 4618,
      "Tennes": 4619,
      "Anti": 4620,
      "47": 4621,
      "Rem": 4622,
      "Wom": 4623,
      "ht": 4624,
      "names": 4625,
      "prem": 4626,
      "stem": 4627,
      "acing": 4628,
      "ural": 4629,
      "illed": 4630,
      "Martha": 4631,
      "handed": 4632,
      "standing": 4633,
      "Trophy": 4634,
      "Auto": 4635,
      "Diego": 4636,
      "32": 4637,
      "miles": 4638,
      "pension": 4639,
      "Threat": 4640,
      "ocial": 4641,
      "Allaw": 4642,
      "sixth": 4643,
      "Associates": 4644,
      "MOSCOW": 4645,
      "Allawi": 4646,
      "Hat": 4647,
      "Mov": 4648,
      "NT": 4649,
      "Pre": 4650,
      "Rul": 4651,
      "erson": 4652,
      "apt": 4653,
      "mant": 4654,
      "assist": 4655,
      "lawsuits": 4656,
      "Pacers": 4657,
      "estimates": 4658,
      "criminal": 4659,
      "700": 4660,
      "Dam": 4661,
      "ont": 4662,
      "century": 4663,
      "Develop": 4664,
      "Colomb": 4665,
      "allegations": 4666,
      "Atlantic": 4667,
      "Tennessee": 4668,
      "CNN": 4669,
      "Gulf": 4670,
      "bul": 4671,
      "gs": 4672,
      "kins": 4673,
      "matter": 4674,
      "story": 4675,
      "requ": 4676,
      "omet": 4677,
      "hear": 4678,
      "looked": 4679,
      "numbers": 4680,
      "ministers": 4681,
      "qualifying": 4682,
      "Investors": 4683,
      "Saturn": 4684,
      "Nort": 4685,
      "lets": 4686,
      "ighth": 4687,
      "appointed": 4688,
      "ums": 4689,
      "word": 4690,
      "grand": 4691,
      "neigh": 4692,
      "victims": 4693,
      "threats": 4694,
      "Nortel": 4695,
      "fit": 4696,
      "vulner": 4697,
      "wall": 4698,
      "ried": 4699,
      "antit": 4700,
      "mselves": 4701,
      "bombs": 4702,
      "NASCAR": 4703,
      "details": 4704,
      "quarters": 4705,
      ".-": 4706,
      "Sell": 4707,
      "hi": 4708,
      "themselves": 4709,
      "abilities": 4710,
      "crack": 4711,
      "autom": 4712,
      "reportedly": 4713,
      "seventh": 4714,
      "solid": 4715,
      "advanced": 4716,
      "Corporation": 4717,
      "ao": 4718,
      "burn": 4719,
      "aling": 4720,
      "offense": 4721,
      "enses": 4722,
      "angu": 4723,
      "March": 4724,
      "becoming": 4725,
      "value": 4726,
      "800": 4727,
      "FI": 4728,
      "jury": 4729,
      "aries": 4730,
      "restruct": 4731,
      "community": 4732,
      "skins": 4733,
      "Shiite": 4734,
      "Philippines": 4735,
      "Claim": 4736,
      "Min": 4737,
      "Tigers": 4738,
      "grew": 4739,
      "mater": 4740,
      "sun": 4741,
      "agent": 4742,
      "airport": 4743,
      "flights": 4744,
      "Seven": 4745,
      "voted": 4746,
      "cities": 4747,
      "rang": 4748,
      "iders": 4749,
      "ager": 4750,
      "owers": 4751,
      "avens": 4752,
      "boys": 4753,
      "mean": 4754,
      "opener": 4755,
      "eye": 4756,
      "Cuba": 4757,
      "Cass": 4758,
      "univers": 4759,
      "secret": 4760,
      "warming": 4761,
      "defensive": 4762,
      "Twins": 4763,
      "virt": 4764,
      "Keep": 4765,
      "Jew": 4766,
      "cit": 4767,
      "pped": 4768,
      "unexpected": 4769,
      "exchange": 4770,
      "areas": 4771,
      "bless": 4772,
      "assets": 4773,
      "traders": 4774,
      "Falluja": 4775,
      "eastern": 4776,
      "rall": 4777,
      "uff": 4778,
      "instead": 4779,
      "really": 4780,
      "etary": 4781,
      "display": 4782,
      "province": 4783,
      "Falls": 4784,
      "switch": 4785,
      "patent": 4786,
      "fastest": 4787,
      "considering": 4788,
      "Er": 4789,
      "kind": 4790,
      "Chile": 4791,
      "index": 4792,
      "stars": 4793,
      "Associated": 4794,
      "multi": 4795,
      "Killed": 4796,
      "Could": 4797,
      "Ped": 4798,
      "Run": 4799,
      "hurricane": 4800,
      "ither": 4801,
      "Guard": 4802,
      "currency": 4803,
      "prepared": 4804,
      "54": 4805,
      "jud": 4806,
      "ninth": 4807,
      "heat": 4808,
      "tomorrow": 4809,
      "Swiss": 4810,
      "crucial": 4811,
      "defeated": 4812,
      "Storm": 4813,
      "Wil": 4814,
      "opport": 4815,
      "ctic": 4816,
      "testing": 4817,
      "industrial": 4818,
      "stroke": 4819,
      "Liber": 4820,
      "climate": 4821,
      "Holdings": 4822,
      "treatment": 4823,
      "strength": 4824,
      "crowd": 4825,
      "Richard": 4826,
      "Target": 4827,
      "live": 4828,
      "mot": 4829,
      "mates": 4830,
      "phis": 4831,
      "zy": 4832,
      "often": 4833,
      "iling": 4834,
      "Frances": 4835,
      "ickets": 4836,
      "finished": 4837,
      "ranch": 4838,
      "Second": 4839,
      "Before": 4840,
      "ruption": 4841,
      "middle": 4842,
      "Husse": 4843,
      "Bears": 4844,
      "Wales": 4845,
      "cup": 4846,
      "tennis": 4847,
      "aris": 4848,
      "iced": 4849,
      "upd": 4850,
      "ulls": 4851,
      "driver": 4852,
      "employment": 4853,
      "Leader": 4854,
      "Ministry": 4855,
      "43": 4856,
      "Jord": 4857,
      "diff": 4858,
      "jumped": 4859,
      "repe": 4860,
      "anda": 4861,
      "ental": 4862,
      "char": 4863,
      "upset": 4864,
      "ordin": 4865,
      "veloper": 4866,
      "atural": 4867,
      "demon": 4868,
      "handheld": 4869,
      "homer": 4870,
      "promised": 4871,
      "hotel": 4872,
      "manufacturing": 4873,
      "awaited": 4874,
      "Royal": 4875,
      "Golf": 4876,
      "andon": 4877,
      "begins": 4878,
      "ources": 4879,
      "elled": 4880,
      "cars": 4881,
      "holds": 4882,
      "students": 4883,
      "Attack": 4884,
      "penal": 4885,
      "upgrade": 4886,
      "brief": 4887,
      "ius": 4888,
      "via": 4889,
      "advis": 4890,
      "exports": 4891,
      "Spec": 4892,
      "Syria": 4893,
      "figh": 4894,
      "peer": 4895,
      "expansion": 4896,
      "Commit": 4897,
      "Seen": 4898,
      "records": 4899,
      "joined": 4900,
      "Schilling": 4901,
      "Turk": 4902,
      "Valley": 4903,
      "antitrust": 4904,
      "Great": 4905,
      "HI": 4906,
      "Kn": 4907,
      "Mur": 4908,
      "Raid": 4909,
      "eth": 4910,
      "replac": 4911,
      "allows": 4912,
      "Leg": 4913,
      "format": 4914,
      "address": 4915,
      "ITY": 4916,
      "summit": 4917,
      "maintain": 4918,
      "options": 4919,
      "package": 4920,
      "documents": 4921,
      "99": 4922,
      "ione": 4923,
      "usion": 4924,
      "weigh": 4925,
      "Phone": 4926,
      "Hamm": 4927,
      "semif": 4928,
      "dram": 4929,
      "seems": 4930,
      "86": 4931,
      "Ever": 4932,
      "HD": 4933,
      "MAN": 4934,
      "cards": 4935,
      "golf": 4936,
      "rick": 4937,
      "tum": 4938,
      "stun": 4939,
      "promp": 4940,
      "concl": 4941,
      "aining": 4942,
      "spir": 4943,
      "cents": 4944,
      "Commer": 4945,
      "slug": 4946,
      "doing": 4947,
      "retailers": 4948,
      "denied": 4949,
      "Charles": 4950,
      "influ": 4951,
      "Titan": 4952,
      "enrichment": 4953,
      "Craig": 4954,
      "Lad": 4955,
      "Rand": 4956,
      "cue": 4957,
      "fish": 4958,
      "govern": 4959,
      "icop": 4960,
      "ami": 4961,
      "bean": 4962,
      "resume": 4963,
      "ivid": 4964,
      "regist": 4965,
      "capac": 4966,
      "Redskins": 4967,
      "Indiana": 4968,
      "model": 4969,
      "Talib": 4970,
      "polls": 4971,
      "Jordan": 4972,
      "76": 4973,
      "faster": 4974,
      "ador": 4975,
      "slide": 4976,
      "nothing": 4977,
      "smart": 4978,
      "forecasts": 4979,
      "completed": 4980,
      "Beckham": 4981,
      "Taliban": 4982,
      "3G": 4983,
      "Lines": 4984,
      "PR": 4985,
      "Sim": 4986,
      "gone": 4987,
      "utions": 4988,
      "ogn": 4989,
      "banking": 4990,
      "Player": 4991,
      "Players": 4992,
      "castle": 4993,
      "previously": 4994,
      "copyright": 4995,
      "bra": 4996,
      "ias": 4997,
      "iled": 4998,
      "aks": 4999,
      "kee": 5000,
      "acher": 5001,
      "scape": 5002,
      "created": 5003,
      "azine": 5004,
      "traffic": 5005,
      "SPACE": 5006,
      "IJ": 5007,
      "Nuclear": 5008,
      "Ravens": 5009,
      "tout": 5010,
      "entire": 5011,
      "safe": 5012,
      "extend": 5013,
      "profession": 5014,
      "account": 5015,
      "Congo": 5016,
      "schedule": 5017,
      "stitution": 5018,
      "aught": 5019,
      "customer": 5020,
      "Hussein": 5021,
      "dramatic": 5022,
      "Ku": 5023,
      "bought": 5024,
      "urch": 5025,
      "user": 5026,
      "Reports": 5027,
      "ALEM": 5028,
      "conditions": 5029,
      "spyware": 5030,
      "Publ": 5031,
      "Lanka": 5032,
      "Committee": 5033,
      "Gla": 5034,
      "Wrap": 5035,
      "elimin": 5036,
      "halt": 5037,
      "Hamid": 5038,
      "Militants": 5039,
      "lon": 5040,
      "voy": 5041,
      "residents": 5042,
      "disease": 5043,
      "thanks": 5044,
      "Alan": 5045,
      "athlet": 5046,
      "closing": 5047,
      "include": 5048,
      "declared": 5049,
      "witnesses": 5050,
      "Citigr": 5051,
      "Citigroup": 5052,
      "CL": 5053,
      "Eli": 5054,
      "Pres": 5055,
      "Well": 5056,
      "wave": 5057,
      "decide": 5058,
      "Probe": 5059,
      "strikes": 5060,
      "terrorists": 5061,
      "Andy": 5062,
      "electronic": 5063,
      "Electronics": 5064,
      "Speed": 5065,
      "atabase": 5066,
      "Gates": 5067,
      "Say": 5068,
      "Ticker": 5069,
      "thr": 5070,
      "olis": 5071,
      "ope": 5072,
      "USA": 5073,
      "USATO": 5074,
      "ivity": 5075,
      "owned": 5076,
      "Barry": 5077,
      "respond": 5078,
      "bringing": 5079,
      "partnership": 5080,
      "USATODAY": 5081,
      "OM": 5082,
      "jan": 5083,
      "agon": 5084,
      "eway": 5085,
      "antage": 5086,
      "majority": 5087,
      "quickly": 5088,
      "returns": 5089,
      "speech": 5090,
      "Argentina": 5091,
      "html": 5092,
      "Ray": 5093,
      "jay": 5094,
      "mixed": 5095,
      "rum": 5096,
      "aval": 5097,
      "ously": 5098,
      "Today": 5099,
      "doubt": 5100,
      "Bigley": 5101,
      "activity": 5102,
      "predict": 5103,
      "democracy": 5104,
      "Billion": 5105,
      "JER": 5106,
      "Key": 5107,
      "Satellite": 5108,
      "Tax": 5109,
      "ched": 5110,
      "Newcastle": 5111,
      "MSFT": 5112,
      "Nigerian": 5113,
      "connect": 5114,
      "46": 5115,
      "Lew": 5116,
      "SH": 5117,
      "hack": 5118,
      "lan": 5119,
      "mist": 5120,
      "rare": 5121,
      "sought": 5122,
      "za": 5123,
      "trig": 5124,
      "wasn": 5125,
      "Colts": 5126,
      "SP2": 5127,
      "Hom": 5128,
      "Make": 5129,
      "Tel": 5130,
      "apolis": 5131,
      "Chir": 5132,
      "haw": 5133,
      "USALEM": 5134,
      "adding": 5135,
      "Carlos": 5136,
      "scores": 5137,
      "Cricket": 5138,
      "preparing": 5139,
      "turning": 5140,
      "Steelers": 5141,
      "independent": 5142,
      "Pedro": 5143,
      "JERUSALEM": 5144,
      "Dist": 5145,
      "Morgan": 5146,
      "Vis": 5147,
      "yl": 5148,
      "ented": 5149,
      "devast": 5150,
      "sued": 5151,
      "Prince": 5152,
      "Prot": 5153,
      "Beat": 5154,
      "emergency": 5155,
      "cancer": 5156,
      "coalition": 5157,
      "Strike": 5158,
      "Oper": 5159,
      "Pad": 5160,
      "Takes": 5161,
      "emy": 5162,
      "inez": 5163,
      "ampa": 5164,
      "izes": 5165,
      "evin": 5166,
      "Administration": 5167,
      "boosted": 5168,
      "bodies": 5169,
      "Meet": 5170,
      "BEIJ": 5171,
      "carrying": 5172,
      "Organization": 5173,
      "difficult": 5174,
      "BEIJING": 5175,
      "Mel": 5176,
      "Fred": 5177,
      "science": 5178,
      "speculation": 5179,
      "Martinez": 5180,
      "Return": 5181,
      "believes": 5182,
      "Liby": 5183,
      "structure": 5184,
      "Motorola": 5185,
      "quiry": 5186,
      "apparently": 5187,
      "Gov": 5188,
      "Mess": 5189,
      "iation": 5190,
      "sens": 5191,
      "wife": 5192,
      "reed": 5193,
      "estab": 5194,
      "imate": 5195,
      "Store": 5196,
      "Anal": 5197,
      "relimin": 5198,
      "fully": 5199,
      "promise": 5200,
      "receiver": 5201,
      "priority": 5202,
      "Aid": 5203,
      "Jaz": 5204,
      "PN": 5205,
      "Vod": 5206,
      "dig": 5207,
      "flaw": 5208,
      "iners": 5209,
      "stre": 5210,
      "reform": 5211,
      "begun": 5212,
      "upcoming": 5213,
      "Ana": 5214,
      "tops": 5215,
      "crashed": 5216,
      "candidates": 5217,
      "42": 5218,
      "51": 5219,
      "Your": 5220,
      "bian": 5221,
      "draft": 5222,
      "ole": 5223,
      "raises": 5224,
      "cept": 5225,
      "osen": 5226,
      "eful": 5227,
      "finding": 5228,
      "involved": 5229,
      "Cassini": 5230,
      "Nets": 5231,
      "UM": 5232,
      "atom": 5233,
      "Robert": 5234,
      "shooting": 5235,
      "Venezuela": 5236,
      "250": 5237,
      "Cow": 5238,
      "Kevin": 5239,
      "Lions": 5240,
      "iro": 5241,
      "mig": 5242,
      "rive": 5243,
      "apse": 5244,
      "buys": 5245,
      "movies": 5246,
      "eyes": 5247,
      "Update1": 5248,
      "Lewis": 5249,
      "05": 5250,
      "53": 5251,
      "AI": 5252,
      "Holl": 5253,
      "Kod": 5254,
      "Rally": 5255,
      "Tampa": 5256,
      "Ziff": 5257,
      "lation": 5258,
      "text": 5259,
      "iter": 5260,
      "ilar": 5261,
      "abuse": 5262,
      "Chry": 5263,
      "serve": 5264,
      "ogra": 5265,
      "active": 5266,
      "actions": 5267,
      "scoring": 5268,
      "Vodaf": 5269,
      "Block": 5270,
      "Jagu": 5271,
      "Mr": 5272,
      "Pist": 5273,
      "Va": 5274,
      "eighth": 5275,
      "hib": 5276,
      "refer": 5277,
      "aming": 5278,
      "abd": 5279,
      "Stan": 5280,
      "spend": 5281,
      "sues": 5282,
      "Show": 5283,
      "putting": 5284,
      "starts": 5285,
      "iership": 5286,
      "processors": 5287,
      "goods": 5288,
      "believed": 5289,
      "Vodafone": 5290,
      "eBay": 5291,
      "lins": 5292,
      "ux": 5293,
      "always": 5294,
      "style": 5295,
      "select": 5296,
      "Reach": 5297,
      "aceut": 5298,
      "partner": 5299,
      "armaceut": 5300,
      "activities": 5301,
      "Scotland": 5302,
      "Turkish": 5303,
      "DC": 5304,
      "Jack": 5305,
      "Jacqu": 5306,
      "River": 5307,
      "SY": 5308,
      "Wenger": 5309,
      "ique": 5310,
      "opens": 5311,
      "deals": 5312,
      "tocol": 5313,
      "puts": 5314,
      "managers": 5315,
      "EST": 5316,
      "smaller": 5317,
      "Laden": 5318,
      "Pistons": 5319,
      "Aub": 5320,
      "Break": 5321,
      "Journal": 5322,
      "Kmart": 5323,
      "Ron": 5324,
      "Sou": 5325,
      "Soccer": 5326,
      "fol": 5327,
      "living": 5328,
      "onse": 5329,
      "enh": 5330,
      "hearing": 5331,
      "individ": 5332,
      "ailed": 5333,
      "ierce": 5334,
      "Final": 5335,
      "Build": 5336,
      "withdrawal": 5337,
      "Rebels": 5338,
      "broken": 5339,
      "demonstr": 5340,
      "Anaheim": 5341,
      "CITY": 5342,
      "Gat": 5343,
      "Phelps": 5344,
      "myst": 5345,
      "nic": 5346,
      "plead": 5347,
      "vill": 5348,
      "ara": 5349,
      "admitted": 5350,
      "steel": 5351,
      "pushed": 5352,
      "Auburn": 5353,
      "BOS": 5354,
      "Hear": 5355,
      "Sub": 5356,
      "Zar": 5357,
      "ero": 5358,
      "enty": 5359,
      "Info": 5360,
      "Strong": 5361,
      "defending": 5362,
      "entered": 5363,
      "holder": 5364,
      "rawl": 5365,
      "includes": 5366,
      "faced": 5367,
      "sky": 5368,
      "response": 5369,
      "Egyptian": 5370,
      "allegedly": 5371,
      "Premiership": 5372,
      "retirement": 5373,
      "doctors": 5374,
      "Haw": 5375,
      "Que": 5376,
      "born": 5377,
      "fa": 5378,
      "theastern": 5379,
      "loy": 5380,
      "helicop": 5381,
      "sler": 5382,
      "awi": 5383,
      "entertainment": 5384,
      "stronger": 5385,
      "organization": 5386,
      "fring": 5387,
      "Troops": 5388,
      "Packers": 5389,
      "Montreal": 5390,
      "Athlet": 5391,
      "capacity": 5392,
      "Carter": 5393,
      "DEL": 5394,
      "Gas": 5395,
      "Mach": 5396,
      "Sears": 5397,
      "sle": 5398,
      "uke": 5399,
      "aret": 5400,
      "irth": 5401,
      "eme": 5402,
      "umn": 5403,
      "Third": 5404,
      "investigating": 5405,
      "advance": 5406,
      "prisoners": 5407,
      "Half": 5408,
      "vehicle": 5409,
      "Chrysler": 5410,
      "BUR": 5411,
      "Dun": 5412,
      "Hy": 5413,
      "Hockey": 5414,
      "Sold": 5415,
      "bin": 5416,
      "piracy": 5417,
      "quiet": 5418,
      "isting": 5419,
      "perfect": 5420,
      "ONG": 5421,
      "ibly": 5422,
      "although": 5423,
      "ysis": 5424,
      "Andre": 5425,
      "aims": 5426,
      "regional": 5427,
      "confident": 5428,
      "Author": 5429,
      "micro": 5430,
      "mutual": 5431,
      "Brief": 5432,
      "Young": 5433,
      "narrow": 5434,
      "Teh": 5435,
      "Boost": 5436,
      "Move": 5437,
      "anticipated": 5438,
      "lives": 5439,
      "icky": 5440,
      "Joe": 5441,
      "remaining": 5442,
      "qualif": 5443,
      "embassy": 5444,
      "trouble": 5445,
      "improved": 5446,
      "immediately": 5447,
      "Eric": 5448,
      "Pers": 5449,
      "rd": 5450,
      "esis": 5451,
      "iple": 5452,
      "ocks": 5453,
      "officers": 5454,
      "150": 5455,
      "minent": 5456,
      "Els": 5457,
      "Di": 5458,
      "KE": 5459,
      "ga": 5460,
      "white": 5461,
      "monitor": 5462,
      "standards": 5463,
      "MP3": 5464,
      "Capital": 5465,
      "seeded": 5466,
      "increasingly": 5467,
      "mnast": 5468,
      "Malaysia": 5469,
      "Nobel": 5470,
      "44": 5471,
      "Kab": 5472,
      "sides": 5473,
      "tent": 5474,
      "ads": 5475,
      "usive": 5476,
      "unions": 5477,
      "lying": 5478,
      "haul": 5479,
      "assi": 5480,
      "link": 5481,
      "threatening": 5482,
      "semi": 5483,
      "Attorney": 5484,
      "similar": 5485,
      "VoIP": 5486,
      "strateg": 5487,
      "Ali": 5488,
      "Ado": 5489,
      "Bas": 5490,
      "Gord": 5491,
      "Pass": 5492,
      "SM": 5493,
      "bru": 5494,
      "developer": 5495,
      "Than": 5496,
      "venue": 5497,
      "surged": 5498,
      "acquired": 5499,
      "voice": 5500,
      "resigned": 5501,
      "shuttle": 5502,
      "veteran": 5503,
      "Jewish": 5504,
      "Tehran": 5505,
      ")--": 5506,
      "Cinc": 5507,
      "Lenn": 5508,
      "fan": 5509,
      "pet": 5510,
      "edia": 5511,
      "enters": 5512,
      "recomm": 5513,
      "rif": 5514,
      "argo": 5515,
      "crimes": 5516,
      "reaching": 5517,
      "hardware": 5518,
      "innati": 5519,
      "Smart": 5520,
      "Chechen": 5521,
      "machines": 5522,
      "Nepal": 5523,
      "reliminary": 5524,
      "Adobe": 5525,
      "Cincinnati": 5526,
      "Blo": 5527,
      "Money": 5528,
      "Miller": 5529,
      "lers": 5530,
      "mate": 5531,
      "tre": 5532,
      "stadium": 5533,
      "aint": 5534,
      "Thousands": 5535,
      "parties": 5536,
      "Iranian": 5537,
      "Halo": 5538,
      "votes": 5539,
      "Launches": 5540,
      "FCC": 5541,
      ".;": 5542,
      "85": 5543,
      "sat": 5544,
      "sters": 5545,
      "aced": 5546,
      "construction": 5547,
      "Shell": 5548,
      "overnight": 5549,
      "Spitzer": 5550,
      "bombings": 5551,
      "advantage": 5552,
      "separate": 5553,
      "Economic": 5554,
      "Management": 5555,
      "Illin": 5556,
      "Gary": 5557,
      "KAB": 5558,
      "bench": 5559,
      "dies": 5560,
      "hood": 5561,
      "edged": 5562,
      "aters": 5563,
      "raid": 5564,
      "exam": 5565,
      "reser": 5566,
      "flash": 5567,
      "Viol": 5568,
      "Help": 5569,
      "widely": 5570,
      "According": 5571,
      "disappointing": 5572,
      "bon": 5573,
      "vez": 5574,
      "impress": 5575,
      "contr": 5576,
      "attention": 5577,
      "Forecast": 5578,
      "declined": 5579,
      "adds": 5580,
      "traditional": 5581,
      "happy": 5582,
      "renewed": 5583,
      "Bi": 5584,
      "Hand": 5585,
      "bly": 5586,
      "buster": 5587,
      "eve": 5588,
      "hing": 5589,
      "shots": 5590,
      "oca": 5591,
      "remote": 5592,
      "Season": 5593,
      "rises": 5594,
      "Agassi": 5595,
      "driven": 5596,
      "grab": 5597,
      "cription": 5598,
      "KABUL": 5599,
      "LC": 5600,
      "franch": 5601,
      "pare": 5602,
      "anmar": 5603,
      "images": 5604,
      "disaster": 5605,
      "Lee": 5606,
      "Rooney": 5607,
      "matches": 5608,
      "prize": 5609,
      "Fox": 5610,
      "appeals": 5611,
      "Myanmar": 5612,
      "Brian": 5613,
      "Met": 5614,
      "jhtml": 5615,
      "lap": 5616,
      "vowed": 5617,
      "aded": 5618,
      "otype": 5619,
      "overtime": 5620,
      "umping": 5621,
      "assass": 5622,
      "contest": 5623,
      "heads": 5624,
      "turns": 5625,
      "Leaders": 5626,
      "Viet": 5627,
      "leaves": 5628,
      "cuit": 5629,
      "magazine": 5630,
      "Jeanne": 5631,
      "Larry": 5632,
      "Dr": 5633,
      "Pf": 5634,
      "bour": 5635,
      "reject": 5636,
      "acted": 5637,
      "leadership": 5638,
      "finds": 5639,
      "unveils": 5640,
      "instant": 5641,
      "supercomputer": 5642,
      "destroy": 5643,
      "Lebanon": 5644,
      "04": 5645,
      "Jr": 5646,
      "MO": 5647,
      "dual": 5648,
      "natural": 5649,
      "qcat": 5650,
      "qtype": 5651,
      "wond": 5652,
      "igious": 5653,
      "usual": 5654,
      "worm": 5655,
      "contribut": 5656,
      "slam": 5657,
      "ements": 5658,
      "Mariners": 5659,
      "QuoteLook": 5660,
      "Sharap": 5661,
      "website": 5662,
      "financeQuoteLook": 5663,
      "infotype": 5664,
      "situation": 5665,
      "Zarq": 5666,
      "financeQuoteLookup": 5667,
      "DO": 5668,
      "Kidn": 5669,
      "PE": 5670,
      "SING": 5671,
      "hman": 5672,
      "mary": 5673,
      "pun": 5674,
      "yad": 5675,
      "unbeaten": 5676,
      "allowing": 5677,
      "violent": 5678,
      "Entertainment": 5679,
      "Milan": 5680,
      "Silicon": 5681,
      "clean": 5682,
      "Kobe": 5683,
      "tackle": 5684,
      "Ferg": 5685,
      "Pfizer": 5686,
      "Longh": 5687,
      "escap": 5688,
      "unless": 5689,
      "rav": 5690,
      "supporters": 5691,
      "command": 5692,
      "lifted": 5693,
      "suspects": 5694,
      "telecommunications": 5695,
      "attacked": 5696,
      "succeed": 5697,
      "Symant": 5698,
      "deaths": 5699,
      "dozens": 5700,
      "Kodak": 5701,
      "Jacques": 5702,
      "Sharapova": 5703,
      "Zarqawi": 5704,
      "Symantec": 5705,
      "52": 5706,
      "DR": 5707,
      "Direct": 5708,
      "JO": 5709,
      "Rw": 5710,
      "eased": 5711,
      "iber": 5712,
      "wrap": 5713,
      "oring": 5714,
      "arily": 5715,
      "ofi": 5716,
      "apers": 5717,
      "shift": 5718,
      "encour": 5719,
      "Indianapolis": 5720,
      "continuing": 5721,
      "directors": 5722,
      "tempor": 5723,
      "vendor": 5724,
      "choice": 5725,
      "37": 5726,
      "JA": 5727,
      "Lim": 5728,
      "Mour": 5729,
      "Mount": 5730,
      "TR": 5731,
      "cann": 5732,
      "caught": 5733,
      "entry": 5734,
      "unlikely": 5735,
      "abs": 5736,
      "accine": 5737,
      "planet": 5738,
      "Seeks": 5739,
      "feature": 5740,
      "claiming": 5741,
      "telecom": 5742,
      "evening": 5743,
      "nationwide": 5744,
      "failure": 5745,
      "camera": 5746,
      "OC": 5747,
      "database": 5748,
      "ued": 5749,
      "thrit": 5750,
      "territ": 5751,
      "ersey": 5752,
      "ably": 5753,
      "extension": 5754,
      "engers": 5755,
      "increases": 5756,
      "falls": 5757,
      "Barcel": 5758,
      "umps": 5759,
      "organiz": 5760,
      "drives": 5761,
      "citiz": 5762,
      "rallied": 5763,
      "Gordon": 5764,
      "Equ": 5765,
      "GB": 5766,
      "ME": 5767,
      "Makes": 5768,
      "bat": 5769,
      "hang": 5770,
      "mond": 5771,
      "atist": 5772,
      "apolog": 5773,
      "achie": 5774,
      "attend": 5775,
      "annel": 5776,
      "Island": 5777,
      "giants": 5778,
      "founder": 5779,
      "beyond": 5780,
      "drove": 5781,
      "Have": 5782,
      "Mut": 5783,
      "tiny": 5784,
      "icious": 5785,
      "ambit": 5786,
      "alliance": 5787,
      "trust": 5788,
      "berg": 5789,
      "expressed": 5790,
      "counting": 5791,
      "defence": 5792,
      "rapid": 5793,
      "Democrats": 5794,
      "Enterprise": 5795,
      "earthquake": 5796,
      "Denver": 5797,
      "Women": 5798,
      "Kim": 5799,
      "NCA": 5800,
      "Opt": 5801,
      "py": 5802,
      "pret": 5803,
      "rather": 5804,
      "comments": 5805,
      "seized": 5806,
      "indic": 5807,
      "ucation": 5808,
      "Quest": 5809,
      "remov": 5810,
      "captured": 5811,
      "Emb": 5812,
      "vehicles": 5813,
      "Thomas": 5814,
      "Vietnam": 5815,
      "thritis": 5816,
      "Pil": 5817,
      "ky": 5818,
      "mand": 5819,
      "tar": 5820,
      "icing": 5821,
      "technologies": 5822,
      "means": 5823,
      "Heat": 5824,
      "reporting": 5825,
      "Offer": 5826,
      "keeps": 5827,
      "compete": 5828,
      "solution": 5829,
      "property": 5830,
      "prosecutors": 5831,
      "Claims": 5832,
      "67": 5833,
      "BBC": 5834,
      "FDA": 5835,
      "Ferr": 5836,
      "gear": 5837,
      "iary": 5838,
      "eds": 5839,
      "rookie": 5840,
      "overall": 5841,
      "Share": 5842,
      "Forces": 5843,
      "launching": 5844,
      "elson": 5845,
      "Edwards": 5846,
      "Brazilian": 5847,
      "Solaris": 5848,
      "rebounds": 5849,
      "songs": 5850,
      "streets": 5851,
      "Kabul": 5852,
      "Jam": 5853,
      "Wis": 5854,
      "drew": 5855,
      "stret": 5856,
      "street": 5857,
      "cher": 5858,
      "seat": 5859,
      "arta": 5860,
      "occup": 5861,
      "officially": 5862,
      "Forbes": 5863,
      "iversary": 5864,
      "failing": 5865,
      "Pervez": 5866,
      "sentenced": 5867,
      "burg": 5868,
      "semic": 5869,
      "vendors": 5870,
      "NCAA": 5871,
      "78": 5872,
      "dream": 5873,
      "lie": 5874,
      "Chart": 5875,
      "securities": 5876,
      "legally": 5877,
      "Plc": 5878,
      "Vijay": 5879,
      "potent": 5880,
      "Barcelona": 5881,
      "69": 5882,
      "Hass": 5883,
      "Mah": 5884,
      "Wild": 5885,
      "gap": 5886,
      "hat": 5887,
      "recogn": 5888,
      "Arctic": 5889,
      "partic": 5890,
      "providers": 5891,
      "Walt": 5892,
      "Officials": 5893,
      "Garc": 5894,
      "Wayne": 5895,
      "Jays": 5896,
      "Trial": 5897,
      "ders": 5898,
      "lights": 5899,
      "enjoy": 5900,
      "formed": 5901,
      "ifts": 5902,
      "newly": 5903,
      "lineup": 5904,
      "poised": 5905,
      "ibur": 5906,
      "walk": 5907,
      "waiting": 5908,
      "Salv": 5909,
      "manufacturer": 5910,
      "InfoWorld": 5911,
      "Apr": 5912,
      "Clear": 5913,
      "Daily": 5914,
      "Mad": 5915,
      "Mun": 5916,
      "feld": 5917,
      "ois": 5918,
      "infring": 5919,
      "eras": 5920,
      "altern": 5921,
      "chances": 5922,
      "abandon": 5923,
      "spons": 5924,
      "Unit": 5925,
      "liqu": 5926,
      "ATA": 5927,
      "vised": 5928,
      "towards": 5929,
      "stitute": 5930,
      "Hallibur": 5931,
      "Commerce": 5932,
      "Halliburton": 5933,
      "wake": 5934,
      "thod": 5935,
      "anch": 5936,
      "aggress": 5937,
      "estone": 5938,
      "iege": 5939,
      "associ": 5940,
      "anny": 5941,
      "governments": 5942,
      "condition": 5943,
      "considered": 5944,
      "89": 5945,
      "Av": 5946,
      "TLE": 5947,
      "birth": 5948,
      "gro": 5949,
      "langu": 5950,
      "mouth": 5951,
      "master": 5952,
      "urning": 5953,
      "agencies": 5954,
      "aints": 5955,
      "enders": 5956,
      "sule": 5957,
      "gry": 5958,
      "aving": 5959,
      "phere": 5960,
      "elected": 5961,
      "events": 5962,
      "rolled": 5963,
      "ranking": 5964,
      "emerged": 5965,
      "winds": 5966,
      "Economy": 5967,
      "ratings": 5968,
      "restructuring": 5969,
      "April": 5970,
      "Cred": 5971,
      "Dream": 5972,
      "Hub": 5973,
      "Pet": 5974,
      "SS": 5975,
      "Vs": 5976,
      "nel": 5977,
      "pip": 5978,
      "preliminary": 5979,
      "vac": 5980,
      "aine": 5981,
      "ables": 5982,
      "portable": 5983,
      "electric": 5984,
      "INT": 5985,
      "announces": 5986,
      "announcing": 5987,
      "posts": 5988,
      "feel": 5989,
      "delays": 5990,
      "Leads": 5991,
      "Summary": 5992,
      "Challenge": 5993,
      "Chirac": 5994,
      "Battle": 5995,
      "Ju": 5996,
      "Ten": 5997,
      "Thai": 5998,
      "Wood": 5999,
      "dial": 6000,
      "mad": 6001,
      "oth": 6002,
      "oing": 6003,
      "ints": 6004,
      "ano": 6005,
      "revers": 6006,
      "asks": 6007,
      "conserv": 6008,
      "APORE": 6009,
      "truck": 6010,
      "NEY": 6011,
      "Progr": 6012,
      "aida": 6013,
      "subst": 6014,
      "comeback": 6015,
      "Genesis": 6016,
      "Titans": 6017,
      "Rockets": 6018,
      "Typhoon": 6019,
      "Browns": 6020,
      "Standard": 6021,
      "SINGAPORE": 6022,
      "88": 6023,
      "Buc": 6024,
      "Even": 6025,
      "Fut": 6026,
      "Qaida": 6027,
      "table": 6028,
      "vide": 6029,
      "stone": 6030,
      "idel": 6031,
      "condem": 6032,
      "iana": 6033,
      "Thanks": 6034,
      "attled": 6035,
      "scar": 6036,
      "creating": 6037,
      "fees": 6038,
      "passenger": 6039,
      "doubled": 6040,
      "refused": 6041,
      "steroid": 6042,
      "criticism": 6043,
      "Advanced": 6044,
      "Kyoto": 6045,
      "Matt": 6046,
      "Ti": 6047,
      "aur": 6048,
      "bomber": 6049,
      "lows": 6050,
      "nd": 6051,
      "ox": 6052,
      "wire": 6053,
      "inquiry": 6054,
      "aren": 6055,
      "ecess": 6056,
      "alled": 6057,
      "plun": 6058,
      "excl": 6059,
      "love": 6060,
      "abo": 6061,
      "Unveil": 6062,
      "Lehman": 6063,
      "blasts": 6064,
      "machine": 6065,
      "Workers": 6066,
      "Connect": 6067,
      "technical": 6068,
      "77": 6069,
      "Far": 6070,
      "NO": 6071,
      "Tot": 6072,
      "cold": 6073,
      "cement": 6074,
      "fam": 6075,
      "hill": 6076,
      "hurricanes": 6077,
      "page": 6078,
      "oning": 6079,
      "amount": 6080,
      "ags": 6081,
      "rier": 6082,
      "convention": 6083,
      "traded": 6084,
      "explo": 6085,
      "Indians": 6086,
      "ESPN": 6087,
      "breaks": 6088,
      "receive": 6089,
      "civilians": 6090,
      "collapse": 6091,
      "practices": 6092,
      "driving": 6093,
      "Users": 6094,
      "hawks": 6095,
      "Illinois": 6096,
      "franchise": 6097,
      "Fal": 6098,
      "Kofi": 6099,
      "Many": 6100,
      "abe": 6101,
      "barg": 6102,
      "banned": 6103,
      "haps": 6104,
      "erup": 6105,
      "etts": 6106,
      "grade": 6107,
      "cling": 6108,
      "door": 6109,
      "cerem": 6110,
      "Edge": 6111,
      "Settle": 6112,
      "Henman": 6113,
      "Ahead": 6114,
      "Curt": 6115,
      "Fil": 6116,
      "RF": 6117,
      "Son": 6118,
      "inters": 6119,
      "eland": 6120,
      "dismissed": 6121,
      "seasons": 6122,
      "shipping": 6123,
      "hitting": 6124,
      "Neal": 6125,
      "figure": 6126,
      "picked": 6127,
      "Hostage": 6128,
      "refugee": 6129,
      "Human": 6130,
      "Site": 6131,
      "mens": 6132,
      "tada": 6133,
      "earn": 6134,
      "atcher": 6135,
      "crush": 6136,
      "Plus": 6137,
      "Appl": 6138,
      "Columb": 6139,
      "Firm": 6140,
      "schools": 6141,
      "pushing": 6142,
      "radical": 6143,
      "status": 6144,
      "explosives": 6145,
      "dominated": 6146,
      "flying": 6147,
      "legislation": 6148,
      "Colombia": 6149,
      "82": 6150,
      "Cos": 6151,
      "DI": 6152,
      "DNEY": 6153,
      "MA": 6154,
      "stations": 6155,
      "isation": 6156,
      "irates": 6157,
      "usetts": 6158,
      "quite": 6159,
      "emen": 6160,
      "achusetts": 6161,
      "liest": 6162,
      "fled": 6163,
      "Arrest": 6164,
      "Reds": 6165,
      "Massachusetts": 6166,
      "lawyer": 6167,
      "surprising": 6168,
      "ShipOne": 6169,
      "opportunity": 6170,
      "SYDNEY": 6171,
      "Jak": 6172,
      "Len": 6173,
      "farm": 6174,
      "umph": 6175,
      "ody": 6176,
      "accident": 6177,
      "bridge": 6178,
      "passengers": 6179,
      "developers": 6180,
      "limited": 6181,
      "patients": 6182,
      "Ryan": 6183,
      "Tennis": 6184,
      "dangerous": 6185,
      "UEFA": 6186,
      "LD": 6187,
      "Land": 6188,
      "MI": 6189,
      "Won": 6190,
      "hen": 6191,
      "rite": 6192,
      "icts": 6193,
      "Inj": 6194,
      "resum": 6195,
      "insisted": 6196,
      "inton": 6197,
      "slip": 6198,
      "relations": 6199,
      "barr": 6200,
      "Nether": 6201,
      "messages": 6202,
      "favour": 6203,
      "involving": 6204,
      "measures": 6205,
      "lawyers": 6206,
      "fighters": 6207,
      "Columbia": 6208,
      "Coll": 6209,
      "cks": 6210,
      "either": 6211,
      "aked": 6212,
      "Anton": 6213,
      "scale": 6214,
      "fined": 6215,
      "worker": 6216,
      "Spy": 6217,
      "Art": 6218,
      "surround": 6219,
      "Offers": 6220,
      "iamond": 6221,
      "transfer": 6222,
      "SpaceShipOne": 6223,
      "Small": 6224,
      "greater": 6225,
      "cope": 6226,
      "struggle": 6227,
      "improving": 6228,
      "Bobby": 6229,
      "Netherlands": 6230,
      "AA": 6231,
      "Bol": 6232,
      "Gil": 6233,
      "Lind": 6234,
      "Water": 6235,
      "father": 6236,
      "signing": 6237,
      "alive": 6238,
      "uncertain": 6239,
      "determin": 6240,
      "lob": 6241,
      "uded": 6242,
      "Month": 6243,
      "ucing": 6244,
      "Shop": 6245,
      "soaring": 6246,
      "corner": 6247,
      "Brad": 6248,
      "possibly": 6249,
      "Treasuries": 6250,
      "dozen": 6251,
      "Toyota": 6252,
      "Maryland": 6253,
      "Cowboys": 6254,
      "3Q": 6255,
      "Let": 6256,
      "Lyn": 6257,
      "cul": 6258,
      "hockey": 6259,
      "torn": 6260,
      "insp": 6261,
      "units": 6262,
      "deput": 6263,
      "highly": 6264,
      "Serena": 6265,
      "Marlins": 6266,
      "throughout": 6267,
      "AMA": 6268,
      "Flight": 6269,
      "Science": 6270,
      "Carib": 6271,
      "McLenn": 6272,
      "viruses": 6273,
      "holy": 6274,
      "MacCentral": 6275,
      "taxes": 6276,
      "racing": 6277,
      "resolve": 6278,
      "convicted": 6279,
      "subscribers": 6280,
      "Libya": 6281,
      "McLennan": 6282,
      "Push": 6283,
      "eason": 6284,
      "iest": 6285,
      "isions": 6286,
      "idea": 6287,
      "anniversary": 6288,
      "Book": 6289,
      "injuring": 6290,
      "fellow": 6291,
      "steady": 6292,
      "committee": 6293,
      "clashes": 6294,
      "notebook": 6295,
      "bottom": 6296,
      "atomic": 6297,
      "Hollinger": 6298,
      "Caribbean": 6299,
      "Jersey": 6300,
      "Max": 6301,
      "heard": 6302,
      "Review": 6303,
      "provided": 6304,
      "Seek": 6305,
      "Airport": 6306,
      "marathon": 6307,
      "Delhi": 6308,
      "Buff": 6309,
      "split": 6310,
      "Line": 6311,
      "LIN": 6312,
      "Match": 6313,
      "Navy": 6314,
      "WOR": 6315,
      "bow": 6316,
      "stands": 6317,
      "Chang": 6318,
      "phys": 6319,
      "libr": 6320,
      "postseason": 6321,
      "solar": 6322,
      "Polit": 6323,
      "playoffs": 6324,
      "environmental": 6325,
      "Longhorn": 6326,
      "Fle": 6327,
      "Pur": 6328,
      "aran": 6329,
      "asion": 6330,
      "allies": 6331,
      "ongoing": 6332,
      "airlines": 6333,
      "ounces": 6334,
      "Conf": 6335,
      "regard": 6336,
      "plants": 6337,
      "awn": 6338,
      "Peter": 6339,
      "corruption": 6340,
      "joining": 6341,
      "Warns": 6342,
      "Busch": 6343,
      "watched": 6344,
      "messaging": 6345,
      "predicted": 6346,
      "friendly": 6347,
      "Berry": 6348,
      "File": 6349,
      "Fav": 6350,
      "Loc": 6351,
      "Ru": 6352,
      "aire": 6353,
      "hunt": 6354,
      "paper": 6355,
      "rated": 6356,
      "ying": 6357,
      "stal": 6358,
      "cha": 6359,
      "cease": 6360,
      "porter": 6361,
      "endum": 6362,
      "compens": 6363,
      "ailing": 6364,
      "NEC": 6365,
      "Alital": 6366,
      "formal": 6367,
      "managed": 6368,
      "Tool": 6369,
      "beats": 6370,
      "McN": 6371,
      "Researchers": 6372,
      "promises": 6373,
      "holes": 6374,
      "Peru": 6375,
      "sembly": 6376,
      "everything": 6377,
      "HOUS": 6378,
      "Fergus": 6379,
      "Jakarta": 6380,
      "Alitalia": 6381,
      "Ban": 6382,
      "Coca": 6383,
      "esters": 6384,
      "arks": 6385,
      "arthritis": 6386,
      "itect": 6387,
      "sequ": 6388,
      "offset": 6389,
      "spin": 6390,
      "Sunni": 6391,
      "beta": 6392,
      "SELS": 6393,
      "Maures": 6394,
      "estimated": 6395,
      "benefit": 6396,
      "Point": 6397,
      "Public": 6398,
      "Blog": 6399,
      "Crit": 6400,
      "Canc": 6401,
      "GP": 6402,
      "Lik": 6403,
      "pact": 6404,
      "leans": 6405,
      "rescue": 6406,
      "identified": 6407,
      "serving": 6408,
      "relie": 6409,
      "Who": 6410,
      "paying": 6411,
      "gained": 6412,
      "sells": 6413,
      "competitive": 6414,
      "Sym": 6415,
      "bitter": 6416,
      "squad": 6417,
      "Labour": 6418,
      "contracts": 6419,
      "semiconductor": 6420,
      "Mauresmo": 6421,
      "Flat": 6422,
      "Men": 6423,
      "Sto": 6424,
      "SAP": 6425,
      "anted": 6426,
      "cean": 6427,
      "Ask": 6428,
      "bigger": 6429,
      "plement": 6430,
      "additional": 6431,
      "injuries": 6432,
      "outsour": 6433,
      "Update2": 6434,
      "stopped": 6435,
      "suffering": 6436,
      "combat": 6437,
      "Fields": 6438,
      "Knicks": 6439,
      "\"\\": 6440,
      "Cir": 6441,
      "Foods": 6442,
      "auts": 6443,
      "mus": 6444,
      "mits": 6445,
      "erc": 6446,
      "arra": 6447,
      "idend": 6448,
      "email": 6449,
      "deleg": 6450,
      "USC": 6451,
      "Devices": 6452,
      "releases": 6453,
      "ERS": 6454,
      "bids": 6455,
      "suspect": 6456,
      "Early": 6457,
      "Chiefs": 6458,
      "expanding": 6459,
      "Official": 6460,
      "Insurance": 6461,
      "BT": 6462,
      "Best": 6463,
      "Gro": 6464,
      "HE": 6465,
      "Squ": 6466,
      "Tre": 6467,
      "gate": 6468,
      "esp": 6469,
      "rein": 6470,
      "ationship": 6471,
      "sav": 6472,
      "artner": 6473,
      "USSELS": 6474,
      "ashion": 6475,
      "Forest": 6476,
      "CoMo": 6477,
      "Appe": 6478,
      "politic": 6479,
      "cells": 6480,
      "DoCoMo": 6481,
      "pledged": 6482,
      "licens": 6483,
      "onghold": 6484,
      "preced": 6485,
      "opponents": 6486,
      "Vikings": 6487,
      "semifinals": 6488,
      "cannot": 6489,
      "Ferguson": 6490,
      "62": 6491,
      "Slo": 6492,
      "TD": 6493,
      "cases": 6494,
      "ito": 6495,
      "knew": 6496,
      "pal": 6497,
      "pione": 6498,
      "oral": 6499,
      "stream": 6500,
      "Chave": 6501,
      "extrem": 6502,
      "mony": 6503,
      "recru": 6504,
      "stronghold": 6505,
      "ropical": 6506,
      "models": 6507,
      "pitched": 6508,
      "frastructure": 6509,
      "climbed": 6510,
      "BRUSSELS": 6511,
      "County": 6512,
      "Chavez": 6513,
      "Eri": 6514,
      "Sor": 6515,
      "VIL": 6516,
      "brawl": 6517,
      "doping": 6518,
      "east": 6519,
      "alert": 6520,
      "repair": 6521,
      "emens": 6522,
      "empt": 6523,
      "ups": 6524,
      "porn": 6525,
      "particip": 6526,
      "proved": 6527,
      "Concer": 6528,
      "Devil": 6529,
      "militia": 6530,
      "nowled": 6531,
      "BAD": 6532,
      "joins": 6533,
      "Companies": 6534,
      "Arabia": 6535,
      "Mosul": 6536,
      "successfully": 6537,
      "ATION": 6538,
      "84": 6539,
      "Here": 6540,
      "Link": 6541,
      "Nation": 6542,
      "Roll": 6543,
      "Stern": 6544,
      "WTO": 6545,
      "aside": 6546,
      "eled": 6547,
      "heav": 6548,
      "enda": 6549,
      "complet": 6550,
      "ovo": 6551,
      "ankle": 6552,
      "slipped": 6553,
      "prepare": 6554,
      "Cola": 6555,
      "Adrian": 6556,
      "presence": 6557,
      "suspension": 6558,
      "friends": 6559,
      "connection": 6560,
      "spring": 6561,
      "Charges": 6562,
      "Siemens": 6563,
      "BOSTON": 6564,
      "Az": 6565,
      "Bird": 6566,
      "Diamond": 6567,
      "Kaza": 6568,
      "Por": 6569,
      "dict": 6570,
      "fought": 6571,
      "lor": 6572,
      "marg": 6573,
      "qtada": 6574,
      "sust": 6575,
      "attract": 6576,
      "loom": 6577,
      "prim": 6578,
      "worry": 6579,
      "sud": 6580,
      "Thatcher": 6581,
      "Short": 6582,
      "backing": 6583,
      "ounced": 6584,
      "Exper": 6585,
      "crime": 6586,
      "Orleans": 6587,
      "Peters": 6588,
      "Moon": 6589,
      "incident": 6590,
      "Charley": 6591,
      "resignation": 6592,
      "Calls": 6593,
      "Travel": 6594,
      "Sweden": 6595,
      "inventories": 6596,
      "journalists": 6597,
      "Cheney": 6598,
      "potentially": 6599,
      "Kazaa": 6600,
      "63": 6601,
      "Basketball": 6602,
      "Det": 6603,
      "Gartner": 6604,
      "Mult": 6605,
      "Past": 6606,
      "Social": 6607,
      "UC": 6608,
      "VE": 6609,
      "Xbox": 6610,
      "bowl": 6611,
      "eat": 6612,
      "tied": 6613,
      "eler": 6614,
      "omes": 6615,
      "owa": 6616,
      "utsch": 6617,
      "constitution": 6618,
      "Anth": 6619,
      "ashing": 6620,
      "rett": 6621,
      "reck": 6622,
      "medals": 6623,
      "lawmakers": 6624,
      "Israelis": 6625,
      "produced": 6626,
      "Edition": 6627,
      "carried": 6628,
      "Telecom": 6629,
      "Embassy": 6630,
      "Chase": 6631,
      "Fish": 6632,
      "GD": 6633,
      "Hugh": 6634,
      "Rest": 6635,
      "Spr": 6636,
      "Semic": 6637,
      "iel": 6638,
      "mil": 6639,
      "pes": 6640,
      "vic": 6641,
      "ille": 6642,
      "amo": 6643,
      "sea": 6644,
      "apter": 6645,
      "anything": 6646,
      "Deutsch": 6647,
      "Austria": 6648,
      "stepped": 6649,
      "experiment": 6650,
      "TAWA": 6651,
      "accounts": 6652,
      "quality": 6653,
      "focused": 6654,
      "Muslims": 6655,
      "Contin": 6656,
      "OTTAWA": 6657,
      "Electronic": 6658,
      "described": 6659,
      "aptors": 6660,
      "pleaded": 6661,
      "qualifier": 6662,
      "HOUSTON": 6663,
      "Cast": 6664,
      "DNA": 6665,
      "Eight": 6666,
      "RA": 6667,
      "dles": 6668,
      "eera": 6669,
      "gish": 6670,
      "plus": 6671,
      "projects": 6672,
      "antas": 6673,
      "identity": 6674,
      "produce": 6675,
      "marine": 6676,
      "McC": 6677,
      "Amid": 6678,
      "closely": 6679,
      "appearance": 6680,
      "BlackBerry": 6681,
      "introduce": 6682,
      "delivered": 6683,
      "measure": 6684,
      "manufacturers": 6685,
      "Raises": 6686,
      "housing": 6687,
      "Rules": 6688,
      "Athletics": 6689,
      "Antonio": 6690,
      "Bos": 6691,
      "Cross": 6692,
      "Foll": 6693,
      "Marg": 6694,
      "ZA": 6695,
      "gar": 6696,
      "hab": 6697,
      "powers": 6698,
      "orbit": 6699,
      "ensure": 6700,
      "ently": 6701,
      "oline": 6702,
      "Stra": 6703,
      "elling": 6704,
      "Sever": 6705,
      "Netscape": 6706,
      "evac": 6707,
      "links": 6708,
      "Trust": 6709,
      "spects": 6710,
      "letter": 6711,
      "Harry": 6712,
      "Universal": 6713,
      "suggests": 6714,
      "loses": 6715,
      "responsible": 6716,
      "Face": 6717,
      "Hamil": 6718,
      "Petro": 6719,
      "WM": 6720,
      "ien": 6721,
      "illegally": 6722,
      "urges": 6723,
      "offices": 6724,
      "click": 6725,
      "financing": 6726,
      "ASE": 6727,
      "providing": 6728,
      "capable": 6729,
      "visiting": 6730,
      "larger": 6731,
      "SEO": 6732,
      "frust": 6733,
      "seemed": 6734,
      "Title": 6735,
      "Cambod": 6736,
      "Hassan": 6737,
      "Bes": 6738,
      "EA": 6739,
      "Kel": 6740,
      "Lakers": 6741,
      "daily": 6742,
      "eb": 6743,
      "mes": 6744,
      "park": 6745,
      "rat": 6746,
      "ecks": 6747,
      "poses": 6748,
      "positions": 6749,
      "ANA": 6750,
      "meter": 6751,
      "10th": 6752,
      "Qual": 6753,
      "remember": 6754,
      "Deb": 6755,
      "gymnast": 6756,
      "Motion": 6757,
      "cleared": 6758,
      "kidnappers": 6759,
      "expanded": 6760,
      "suggested": 6761,
      "rejects": 6762,
      "Osama": 6763,
      "Hamilton": 6764,
      "Bor": 6765,
      "Bills": 6766,
      "Gri": 6767,
      "Hung": 6768,
      "Las": 6769,
      "Lock": 6770,
      "Links": 6771,
      "Raf": 6772,
      "Race": 6773,
      "tap": 6774,
      "itude": 6775,
      "agents": 6776,
      "earned": 6777,
      "Their": 6778,
      "Ready": 6779,
      "Child": 6780,
      "iffe": 6781,
      "centre": 6782,
      "uces": 6783,
      "lando": 6784,
      "ORTS": 6785,
      "defend": 6786,
      "recording": 6787,
      "mohan": 6788,
      "versions": 6789,
      "postpon": 6790,
      "Schum": 6791,
      "Explos": 6792,
      "Campaign": 6793,
      "Victory": 6794,
      "Pentagon": 6795,
      "mountain": 6796,
      "ceremony": 6797,
      "RFID": 6798,
      "sudden": 6799,
      "Boy": 6800,
      "DU": 6801,
      "Hond": 6802,
      "Sn": 6803,
      "Sem": 6804,
      "Viv": 6805,
      "fold": 6806,
      "smo": 6807,
      "Theft": 6808,
      "abled": 6809,
      "2007": 6810,
      "killer": 6811,
      "headquarters": 6812,
      "couldn": 6813,
      "triumph": 6814,
      "aware": 6815,
      "guerr": 6816,
      "Andrew": 6817,
      "insurgent": 6818,
      "Abd": 6819,
      "modest": 6820,
      "networking": 6821,
      "challenges": 6822,
      "Celtic": 6823,
      "Celtics": 6824,
      "virtual": 6825,
      "Deutsche": 6826,
      "CI": 6827,
      "Ven": 6828,
      "bull": 6829,
      "brain": 6830,
      "iMac": 6831,
      "len": 6832,
      "infrastructure": 6833,
      "ache": 6834,
      "uty": 6835,
      "landmark": 6836,
      "Convention": 6837,
      "remlin": 6838,
      "Weigh": 6839,
      "agrees": 6840,
      "reduced": 6841,
      "Clinton": 6842,
      "Disc": 6843,
      "Guine": 6844,
      "possibility": 6845,
      "Demand": 6846,
      "PlayStation": 6847,
      "ucky": 6848,
      "feared": 6849,
      "astronauts": 6850,
      "Seahawks": 6851,
      "Clemens": 6852,
      "picture": 6853,
      "abduct": 6854,
      "Semiconductor": 6855,
      "Close": 6856,
      "F1": 6857,
      "OF": 6858,
      "Raptors": 6859,
      "cott": 6860,
      "map": 6861,
      "atively": 6862,
      "acco": 6863,
      "consp": 6864,
      "confirm": 6865,
      "willing": 6866,
      "firing": 6867,
      "izards": 6868,
      "marked": 6869,
      "Orlando": 6870,
      "largely": 6871,
      "passing": 6872,
      "ossil": 6873,
      "160": 6874,
      "promot": 6875,
      "demanding": 6876,
      "critics": 6877,
      "locked": 6878,
      "accepted": 6879,
      "cameras": 6880,
      "couple": 6881,
      "Lycos": 6882,
      "LINE": 6883,
      "assistant": 6884,
      "Credit": 6885,
      "Gard": 6886,
      "Kremlin": 6887,
      "Nearly": 6888,
      "Ross": 6889,
      "Tay": 6890,
      "tank": 6891,
      "inho": 6892,
      "inspect": 6893,
      "agging": 6894,
      "quakes": 6895,
      "laugh": 6896,
      "gren": 6897,
      "oking": 6898,
      "blamed": 6899,
      "attorney": 6900,
      "pole": 6901,
      "warnings": 6902,
      "profile": 6903,
      "Manmohan": 6904,
      "showdown": 6905,
      "keepers": 6906,
      "oose": 6907,
      "Philips": 6908,
      "Electric": 6909,
      "Parliament": 6910,
      "Attacks": 6911,
      "IMF": 6912,
      "Control": 6913,
      "Silver": 6914,
      "convoy": 6915,
      "piece": 6916,
      "deputy": 6917,
      "Guinea": 6918,
      ".\\\\": 6919,
      "Gains": 6920,
      "Mu": 6921,
      "Nap": 6922,
      "Round": 6923,
      "Van": 6924,
      "comed": 6925,
      "umble": 6926,
      "manned": 6927,
      "cliffe": 6928,
      "2008": 6929,
      "disrupt": 6930,
      "bron": 6931,
      "Itanium": 6932,
      "blog": 6933,
      "factory": 6934,
      "lowest": 6935,
      "expert": 6936,
      "Abbey": 6937,
      "successor": 6938,
      "easier": 6939,
      "Harmony": 6940,
      "1990": 6941,
      "collabor": 6942,
      "downloads": 6943,
      "graphics": 6944,
      "require": 6945,
      "outsourcing": 6946,
      "VILLE": 6947,
      "56": 6948,
      "72": 6949,
      "Auss": 6950,
      "Bud": 6951,
      "Gh": 6952,
      "Pict": 6953,
      "Rain": 6954,
      "fate": 6955,
      "hike": 6956,
      "nie": 6957,
      "ores": 6958,
      "rect": 6959,
      "usal": 6960,
      "illy": 6961,
      "implement": 6962,
      "compared": 6963,
      "obtain": 6964,
      "intens": 6965,
      "angered": 6966,
      "Why": 6967,
      "SEAT": 6968,
      "causing": 6969,
      "engineers": 6970,
      "Storage": 6971,
      "euros": 6972,
      "drivers": 6973,
      "favorite": 6974,
      "Violence": 6975,
      "language": 6976,
      "precedented": 6977,
      "Bul": 6978,
      "Fen": 6979,
      "Fans": 6980,
      "Rums": 6981,
      "Wants": 6982,
      "aide": 6983,
      "fashion": 6984,
      "rington": 6985,
      "wart": 6986,
      "otic": 6987,
      "resist": 6988,
      "proceed": 6989,
      "iant": 6990,
      "ipse": 6991,
      "lah": 6992,
      "sect": 6993,
      "anyone": 6994,
      "inaug": 6995,
      "missions": 6996,
      "mostly": 6997,
      "relationship": 6998,
      "brother": 6999,
      "Support": 7000,
      "controlled": 7001,
      "ousted": 7002,
      "struggled": 7003,
      "weaker": 7004,
      "Glazer": 7005,
      "strategic": 7006,
      "particular": 7007,
      "Rumsfeld": 7008,
      "Ca": 7009,
      "Gam": 7010,
      "Lit": 7011,
      "NC": 7012,
      "Snow": 7013,
      "sized": 7014,
      "wich": 7015,
      "waves": 7016,
      "alone": 7017,
      "Staff": 7018,
      "secretary": 7019,
      "ample": 7020,
      "invasion": 7021,
      "ortium": 7022,
      "formally": 7023,
      "ISL": 7024,
      "tradition": 7025,
      "Supply": 7026,
      "Finance": 7027,
      "places": 7028,
      "everyone": 7029,
      "capture": 7030,
      "covered": 7031,
      "Henry": 7032,
      "commissioner": 7033,
      "department": 7034,
      "answer": 7035,
      "Jazeera": 7036,
      "DELHI": 7037,
      "dark": 7038,
      "rid": 7039,
      "envoy": 7040,
      "exec": 7041,
      "compon": 7042,
      "provides": 7043,
      "ATLAN": 7044,
      "Maria": 7045,
      "Protocol": 7046,
      "roundup": 7047,
      "programme": 7048,
      "SPORTS": 7049,
      "complex": 7050,
      "emerging": 7051,
      "Helens": 7052,
      "Military": 7053,
      "writes": 7054,
      "effective": 7055,
      "Owen": 7056,
      "reasons": 7057,
      "Cyber": 7058,
      "Foundation": 7059,
      "diplomats": 7060,
      "silver": 7061,
      "scientific": 7062,
      "Program": 7063,
      "AMABAD": 7064,
      "ISLAMABAD": 7065,
      "3rd": 7066,
      "Ho": 7067,
      "Like": 7068,
      "Since": 7069,
      "mother": 7070,
      "itas": 7071,
      "reforms": 7072,
      "isk": 7073,
      "adop": 7074,
      "unprecedented": 7075,
      "icken": 7076,
      "assess": 7077,
      "returning": 7078,
      "Ends": 7079,
      "surface": 7080,
      "proves": 7081,
      "parents": 7082,
      "capsule": 7083,
      "Marines": 7084,
      "Blu": 7085,
      "arming": 7086,
      "reflect": 7087,
      "Syd": 7088,
      "sentence": 7089,
      "Partners": 7090,
      "VIEN": 7091,
      "subsidiary": 7092,
      "CRM": 7093,
      "Raiders": 7094,
      "District": 7095,
      "establish": 7096,
      "helicopter": 7097,
      "Anthony": 7098,
      "Dick": 7099,
      "Jun": 7100,
      "Mod": 7101,
      "Prom": 7102,
      "Wizards": 7103,
      "cabinet": 7104,
      "vaccine": 7105,
      "perform": 7106,
      "enson": 7107,
      "evol": 7108,
      "payments": 7109,
      "titles": 7110,
      "Abbas": 7111,
      "elescope": 7112,
      "LAND": 7113,
      "professional": 7114,
      "individual": 7115,
      "Garcia": 7116,
      "Honda": 7117,
      "bronze": 7118,
      "Sydney": 7119,
      "68": 7120,
      "Bru": 7121,
      "UA": 7122,
      "vard": 7123,
      "emale": 7124,
      "prop": 7125,
      "prospects": 7126,
      "offs": 7127,
      "neg": 7128,
      "achi": 7129,
      "worlds": 7130,
      "talking": 7131,
      "Works": 7132,
      "busy": 7133,
      "Debut": 7134,
      "rell": 7135,
      "meetings": 7136,
      "shoulder": 7137,
      "Alliance": 7138,
      "respect": 7139,
      "Merc": 7140,
      "EMC": 7141,
      "overseas": 7142,
      "currently": 7143,
      "GAZA": 7144,
      "heavyweight": 7145,
      "Hopes": 7146,
      "Swedish": 7147,
      "shrine": 7148,
      "Ballmer": 7149,
      "famous": 7150,
      "95": 7151,
      "Cabinet": 7152,
      "Caval": 7153,
      "Domin": 7154,
      "Jet": 7155,
      "LCD": 7156,
      "Years": 7157,
      "icle": 7158,
      "tering": 7159,
      "worried": 7160,
      "portation": 7161,
      "boom": 7162,
      "monthly": 7163,
      "desert": 7164,
      "Soon": 7165,
      "payment": 7166,
      "followed": 7167,
      "politics": 7168,
      "sentiment": 7169,
      "watching": 7170,
      "Meg": 7171,
      "instit": 7172,
      "EMBER": 7173,
      "ippi": 7174,
      "embattled": 7175,
      "multiple": 7176,
      "spammers": 7177,
      "jailed": 7178,
      "pounds": 7179,
      "Urges": 7180,
      "Stephen": 7181,
      "infringement": 7182,
      "Every": 7183,
      "ML": 7184,
      "Priv": 7185,
      "Sab": 7186,
      "TI": 7187,
      "VP": 7188,
      "hired": 7189,
      "neck": 7190,
      "var": 7191,
      "enix": 7192,
      "spo": 7193,
      "scrap": 7194,
      "accusing": 7195,
      "Spurs": 7196,
      "Although": 7197,
      "Serb": 7198,
      "inking": 7199,
      "Allen": 7200,
      "distance": 7201,
      "gunmen": 7202,
      "lockout": 7203,
      "Democrat": 7204,
      "photograph": 7205,
      "distribution": 7206,
      "neighbor": 7207,
      "stretch": 7208,
      "Margaret": 7209,
      "CBC": 7210,
      "Eastern": 7211,
      "Ha": 7212,
      "MAR": 7213,
      "UAL": 7214,
      "Zone": 7215,
      "brew": 7216,
      "vin": 7217,
      "wag": 7218,
      "inh": 7219,
      "enport": 7220,
      "leum": 7221,
      "ello": 7222,
      "prospect": 7223,
      "anson": 7224,
      "client": 7225,
      "scram": 7226,
      "chnya": 7227,
      "lining": 7228,
      "targeting": 7229,
      "included": 7230,
      "internal": 7231,
      "Davenport": 7232,
      "follow": 7233,
      "BCS": 7234,
      "offerings": 7235,
      "Chechnya": 7236,
      "architect": 7237,
      "Signs": 7238,
      "Republicans": 7239,
      "Little": 7240,
      "Cat": 7241,
      "Fra": 7242,
      "Famil": 7243,
      "Jay": 7244,
      "Jama": 7245,
      "Mail": 7246,
      "Mort": 7247,
      "Nic": 7248,
      "Ori": 7249,
      "RI": 7250,
      "Sand": 7251,
      "ez": 7252,
      "tun": 7253,
      "eder": 7254,
      "icy": 7255,
      "Institute": 7256,
      "ours": 7257,
      "acknowled": 7258,
      "perhaps": 7259,
      "inson": 7260,
      "disk": 7261,
      "Briton": 7262,
      "Pho": 7263,
      "UNIT": 7264,
      "hero": 7265,
      "threatens": 7266,
      "competitors": 7267,
      "affect": 7268,
      "experience": 7269,
      "Commun": 7270,
      "Survey": 7271,
      "controversy": 7272,
      "Broncos": 7273,
      "Jaguar": 7274,
      "referendum": 7275,
      "Unveils": 7276,
      "Schumacher": 7277,
      "SEATTLE": 7278,
      "ATLANTA": 7279,
      "Hospital": 7280,
      "Mat": 7281,
      "Rams": 7282,
      "Use": 7283,
      "bun": 7284,
      "cult": 7285,
      "ka": 7286,
      "lies": 7287,
      "siege": 7288,
      "exact": 7289,
      "manage": 7290,
      "scr": 7291,
      "oya": 7292,
      "supposed": 7293,
      "operators": 7294,
      "commander": 7295,
      "preseason": 7296,
      "knows": 7297,
      "View": 7298,
      "equity": 7299,
      "Suicide": 7300,
      "tells": 7301,
      "Philippine": 7302,
      "function": 7303,
      "rushed": 7304,
      "Sirius": 7305,
      "sluggish": 7306,
      "Gateway": 7307,
      "UNITED": 7308,
      "Hills": 7309,
      "Hundreds": 7310,
      "Lay": 7311,
      "OG": 7312,
      "Ob": 7313,
      "SCO": 7314,
      "bag": 7315,
      "bts": 7316,
      "felt": 7317,
      "wear": 7318,
      "eless": 7319,
      "forest": 7320,
      "adow": 7321,
      "trend": 7322,
      "suing": 7323,
      "blame": 7324,
      "Shang": 7325,
      "whole": 7326,
      "Contract": 7327,
      "reading": 7328,
      "rolling": 7329,
      "powered": 7330,
      "Rose": 7331,
      "attempts": 7332,
      "frequ": 7333,
      "Panel": 7334,
      "mosque": 7335,
      "updates": 7336,
      "Bad": 7337,
      "Cur": 7338,
      "Eis": 7339,
      "Must": 7340,
      "mob": 7341,
      "thin": 7342,
      "tos": 7343,
      "imming": 7344,
      "approve": 7345,
      "rub": 7346,
      "acceler": 7347,
      "bright": 7348,
      "consol": 7349,
      "targeted": 7350,
      "Box": 7351,
      "aska": 7352,
      "stein": 7353,
      "concerned": 7354,
      "denies": 7355,
      "Harris": 7356,
      "privately": 7357,
      "Veritas": 7358,
      "supplier": 7359,
      "committed": 7360,
      "photos": 7361,
      "Safin": 7362,
      "Vegas": 7363,
      "optimistic": 7364,
      "Shanghai": 7365,
      "57": 7366,
      "NATION": 7367,
      "SO": 7368,
      "Traf": 7369,
      "kil": 7370,
      "chet": 7371,
      "vement": 7372,
      "exerc": 7373,
      "shire": 7374,
      "landing": 7375,
      "tested": 7376,
      "producing": 7377,
      "subject": 7378,
      "atorial": 7379,
      "limit": 7380,
      "Mayor": 7381,
      "boosting": 7382,
      "patents": 7383,
      "greatest": 7384,
      "Championships": 7385,
      "Justin": 7386,
      "membership": 7387,
      "Expected": 7388,
      "magn": 7389,
      "gaming": 7390,
      "PalmOne": 7391,
      "Release": 7392,
      "liquid": 7393,
      "WORLD": 7394,
      "Eisner": 7395,
      "Brew": 7396,
      "Cze": 7397,
      "Ev": 7398,
      "HAR": 7399,
      "U2": 7400,
      "Vice": 7401,
      "filled": 7402,
      "necess": 7403,
      "pm": 7404,
      "ticket": 7405,
      "tape": 7406,
      "wides": 7407,
      "alo": 7408,
      "ingham": 7409,
      "grad": 7410,
      "backer": 7411,
      "meets": 7412,
      "brings": 7413,
      "religious": 7414,
      "shipments": 7415,
      "swing": 7416,
      "ministr": 7417,
      "Depot": 7418,
      "vania": 7419,
      "Does": 7420,
      "destruct": 7421,
      "initiative": 7422,
      "Murdo": 7423,
      "Everton": 7424,
      "trigg": 7425,
      "Cavaliers": 7426,
      "Czech": 7427,
      "Astr": 7428,
      "Govern": 7429,
      "Soy": 7430,
      "Winter": 7431,
      "aly": 7432,
      "revolution": 7433,
      "icut": 7434,
      "ecially": 7435,
      "beef": 7436,
      "Revenue": 7437,
      "shake": 7438,
      "ONLINE": 7439,
      "cooperation": 7440,
      "sson": 7441,
      "producers": 7442,
      "homered": 7443,
      "regulatory": 7444,
      "Golden": 7445,
      "BEA": 7446,
      "immediate": 7447,
      "ometimes": 7448,
      "penalty": 7449,
      "alternative": 7450,
      "Connecticut": 7451,
      "especially": 7452,
      "SEOUL": 7453,
      "2nd": 7454,
      "Beng": 7455,
      "Iowa": 7456,
      "Log": 7457,
      "Suc": 7458,
      "Wake": 7459,
      "ipl": 7460,
      "rill": 7461,
      "sense": 7462,
      "ua": 7463,
      "zen": 7464,
      "education": 7465,
      "oft": 7466,
      "determ": 7467,
      "aste": 7468,
      "abil": 7469,
      "prises": 7470,
      "ifies": 7471,
      "neth": 7472,
      "AND": 7473,
      "ologists": 7474,
      "coaching": 7475,
      "ikes": 7476,
      "McDonald": 7477,
      "studios": 7478,
      "promising": 7479,
      "Holiday": 7480,
      "IRO": 7481,
      "Radcliffe": 7482,
      "shoppers": 7483,
      "pilot": 7484,
      "welcome": 7485,
      "awarded": 7486,
      "Broadband": 7487,
      "Development": 7488,
      "armaceutical": 7489,
      "territory": 7490,
      "compensation": 7491,
      "Several": 7492,
      "VIENNA": 7493,
      "Phoenix": 7494,
      "Murdoch": 7495,
      "List": 7496,
      "NZ": 7497,
      "Tops": 7498,
      "ride": 7499,
      "wickets": 7500,
      "waters": 7501,
      "ayed": 7502,
      "shown": 7503,
      "hasn": 7504,
      "fires": 7505,
      "reporters": 7506,
      "COL": 7507,
      "shareholder": 7508,
      "facility": 7509,
      "drops": 7510,
      "employee": 7511,
      "Laur": 7512,
      "reality": 7513,
      "Medical": 7514,
      "dividend": 7515,
      "separatist": 7516,
      "Sky": 7517,
      "rolls": 7518,
      "responsibility": 7519,
      "original": 7520,
      "sparked": 7521,
      "loyal": 7522,
      "Thanksgiving": 7523,
      "Trafford": 7524,
      "92": 7525,
      "Ba": 7526,
      "emp": 7527,
      "umber": 7528,
      "endi": 7529,
      "amped": 7530,
      "useum": 7531,
      "clothing": 7532,
      "risks": 7533,
      "genet": 7534,
      "Clar": 7535,
      "storms": 7536,
      "Road": 7537,
      "IDC": 7538,
      "lowered": 7539,
      "humans": 7540,
      "families": 7541,
      "Kenneth": 7542,
      "Panthers": 7543,
      "protests": 7544,
      "ernand": 7545,
      "Insurgents": 7546,
      "document": 7547,
      "Chargers": 7548,
      "battered": 7549,
      "origin": 7550,
      "gathered": 7551,
      "Latest": 7552,
      "university": 7553,
      "hackers": 7554,
      "Southeast": 7555,
      "Napster": 7556,
      "350": 7557,
      "Du": 7558,
      "Fuel": 7559,
      "Faces": 7560,
      "Hun": 7561,
      "Lley": 7562,
      "Pino": 7563,
      "Racing": 7564,
      "Xinh": 7565,
      "chem": 7566,
      "olves": 7567,
      "usto": 7568,
      "agues": 7569,
      "alls": 7570,
      "uly": 7571,
      "reserve": 7572,
      "concess": 7573,
      "Chad": 7574,
      "true": 7575,
      "icking": 7576,
      "express": 7577,
      "teammates": 7578,
      "restore": 7579,
      "Project": 7580,
      "pread": 7581,
      "feet": 7582,
      "hopeful": 7583,
      "reaches": 7584,
      "Bankrupt": 7585,
      "strained": 7586,
      "Guant": 7587,
      "population": 7588,
      "modern": 7589,
      "policies": 7590,
      "slowdown": 7591,
      "EDS": 7592,
      "disputed": 7593,
      "Consumers": 7594,
      "flagship": 7595,
      "governor": 7596,
      "Diamondbacks": 7597,
      "Hughes": 7598,
      "Lleyton": 7599,
      "Pinochet": 7600,
      "79": 7601,
      "Dom": 7602,
      "Nick": 7603,
      "Pct": 7604,
      "cats": 7605,
      "female": 7606,
      "na": 7607,
      "wage": 7608,
      "itarian": 7609,
      "rail": 7610,
      "comfort": 7611,
      "ulate": 7612,
      "odd": 7613,
      "grid": 7614,
      "worked": 7615,
      "slowing": 7616,
      "capabilities": 7617,
      "ength": 7618,
      "Norway": 7619,
      "march": 7620,
      "freeze": 7621,
      "copies": 7622,
      "Febru": 7623,
      "brokerage": 7624,
      "publisher": 7625,
      "material": 7626,
      "Ferrari": 7627,
      "February": 7628,
      "Hurricanes": 7629,
      "UJA": 7630,
      "Vill": 7631,
      "cry": 7632,
      "ja": 7633,
      "acom": 7634,
      "forcing": 7635,
      "utility": 7636,
      "overhaul": 7637,
      "ocide": 7638,
      "extending": 7639,
      "meters": 7640,
      "Also": 7641,
      "console": 7642,
      "trials": 7643,
      "ALI": 7644,
      "Clim": 7645,
      "ADEL": 7646,
      "explosions": 7647,
      "1999": 7648,
      "delivery": 7649,
      "Gunmen": 7650,
      "Pentium": 7651,
      "organizations": 7652,
      "aboard": 7653,
      "widespread": 7654,
      "Cas": 7655,
      "Cro": 7656,
      "Jon": 7657,
      "Kent": 7658,
      "Py": 7659,
      "Sach": 7660,
      "Sav": 7661,
      "WE": 7662,
      "Zo": 7663,
      "lus": 7664,
      "lux": 7665,
      "incent": 7666,
      "ston": 7667,
      "unar": 7668,
      "imports": 7669,
      "verage": 7670,
      "exhib": 7671,
      "abad": 7672,
      "whel": 7673,
      "Check": 7674,
      "compat": 7675,
      "Shows": 7676,
      "retired": 7677,
      "Prison": 7678,
      "ORCL": 7679,
      "blew": 7680,
      "deser": 7681,
      "handset": 7682,
      "views": 7683,
      "Berlin": 7684,
      "revenues": 7685,
      "audio": 7686,
      "Kenya": 7687,
      "Lawy": 7688,
      "Safety": 7689,
      "settled": 7690,
      "breath": 7691,
      "horse": 7692,
      "influence": 7693,
      "tentative": 7694,
      "Buffalo": 7695,
      "determine": 7696,
      "74": 7697,
      "Fresh": 7698,
      "Hill": 7699,
      "MAD": 7700,
      "Right": 7701,
      "WN": 7702,
      "cart": 7703,
      "tail": 7704,
      "ono": 7705,
      "imposed": 7706,
      "merge": 7707,
      "oco": 7708,
      "ancy": 7709,
      "Least": 7710,
      "AST": 7711,
      "legend": 7712,
      "consin": 7713,
      "Scient": 7714,
      "specific": 7715,
      "marks": 7716,
      "Guid": 7717,
      "Buys": 7718,
      "innov": 7719,
      "effects": 7720,
      "regulator": 7721,
      "gasoline": 7722,
      "races": 7723,
      "battles": 7724,
      "license": 7725,
      "Memphis": 7726,
      "sweeping": 7727,
      "Fighting": 7728,
      "pictures": 7729,
      "Phillies": 7730,
      "unexpectedly": 7731,
      "Wisconsin": 7732,
      "Gain": 7733,
      "Rays": 7734,
      "VIE": 7735,
      "creat": 7736,
      "fierce": 7737,
      "wing": 7738,
      "rot": 7739,
      "aka": 7740,
      "ords": 7741,
      "Shut": 7742,
      "backup": 7743,
      "Index": 7744,
      "posing": 7745,
      "medic": 7746,
      "setback": 7747,
      "slides": 7748,
      "NEWS": 7749,
      "visions": 7750,
      "easily": 7751,
      "Mississ": 7752,
      "carriers": 7753,
      "opponent": 7754,
      "scientist": 7755,
      "Briefly": 7756,
      "Pilots": 7757,
      "pipeline": 7758,
      "TiVo": 7759,
      "Eriks": 7760,
      "Orioles": 7761,
      "G5": 7762,
      "NATO": 7763,
      "Sets": 7764,
      "Sven": 7765,
      "crown": 7766,
      "aser": 7767,
      "ems": 7768,
      "ulting": 7769,
      "acking": 7770,
      "wealth": 7771,
      "lav": 7772,
      "igned": 7773,
      "mining": 7774,
      "ventus": 7775,
      "handsets": 7776,
      "crackdown": 7777,
      "Juventus": 7778,
      "Future": 7779,
      "71": 7780,
      "Bull": 7781,
      "CK": 7782,
      "Flo": 7783,
      "bills": 7784,
      "grip": 7785,
      "path": 7786,
      "uz": 7787,
      "restaur": 7788,
      "ships": 7789,
      "processing": 7790,
      "listed": 7791,
      "Suit": 7792,
      "dominant": 7793,
      "Officer": 7794,
      "Kuwait": 7795,
      "Authority": 7796,
      "Beslan": 7797,
      "81": 7798,
      "Ga": 7799,
      "Id": 7800,
      "Stop": 7801,
      "Vent": 7802,
      "eers": 7803,
      "fli": 7804,
      "punch": 7805,
      "agers": 7806,
      "estate": 7807,
      "imately": 7808,
      "apart": 7809,
      "shed": 7810,
      "loans": 7811,
      "ellor": 7812,
      "perman": 7813,
      "branch": 7814,
      "misses": 7815,
      "ological": 7816,
      "victim": 7817,
      "operate": 7818,
      "calm": 7819,
      "Finland": 7820,
      "Switzer": 7821,
      "funding": 7822,
      "moder": 7823,
      "sidel": 7824,
      "Milose": 7825,
      "PSFT": 7826,
      "momentum": 7827,
      "Analyst": 7828,
      "citizens": 7829,
      "Equatorial": 7830,
      "Mississippi": 7831,
      "Eriksson": 7832,
      "96": 7833,
      "Burn": 7834,
      "Cath": 7835,
      "Kid": 7836,
      "Mits": 7837,
      "Ricky": 7838,
      "Wel": 7839,
      "mour": 7840,
      "mud": 7841,
      "syn": 7842,
      "write": 7843,
      "anamo": 7844,
      "edition": 7845,
      "unemployment": 7846,
      "ulk": 7847,
      "exc": 7848,
      "dee": 7849,
      "clin": 7850,
      "expensive": 7851,
      "desper": 7852,
      "Goes": 7853,
      "Carl": 7854,
      "attered": 7855,
      "Arsene": 7856,
      "Investig": 7857,
      "prepares": 7858,
      "simple": 7859,
      "Montg": 7860,
      "sexual": 7861,
      "welcomed": 7862,
      "prosecutor": 7863,
      "chenko": 7864,
      "floods": 7865,
      "Finds": 7866,
      "keeper": 7867,
      "Milosevic": 7868,
      "Ah": 7869,
      "Bec": 7870,
      "Cash": 7871,
      "Gor": 7872,
      "Give": 7873,
      "SI": 7874,
      "fill": 7875,
      "sand": 7876,
      "sight": 7877,
      "vy": 7878,
      "ecl": 7879,
      "utious": 7880,
      "existing": 7881,
      "conver": 7882,
      "haz": 7883,
      "ivors": 7884,
      "scene": 7885,
      "ancient": 7886,
      "Conway": 7887,
      "typhoon": 7888,
      "justice": 7889,
      "trail": 7890,
      "rounds": 7891,
      "searching": 7892,
      "barely": 7893,
      "146": 7894,
      "skip": 7895,
      "cautious": 7896,
      "GOP": 7897,
      "civilian": 7898,
      "strengthe": 7899,
      "Daniel": 7900,
      "astronom": 7901,
      "Soldiers": 7902,
      "postponed": 7903,
      "Guantanamo": 7904,
      "/&": 7905,
      "Ash": 7906,
      "Horn": 7907,
      "Kl": 7908,
      "Kaz": 7909,
      "Pirates": 7910,
      "Try": 7911,
      "vows": 7912,
      "orse": 7913,
      "theft": 7914,
      "icals": 7915,
      "imedia": 7916,
      "ception": 7917,
      "exceed": 7918,
      "ister": 7919,
      "trick": 7920,
      "phic": 7921,
      "remove": 7922,
      "creation": 7923,
      "becomes": 7924,
      "victories": 7925,
      "Palace": 7926,
      "Results": 7927,
      "2012": 7928,
      "ARTA": 7929,
      "coaches": 7930,
      "Acqu": 7931,
      "Suz": 7932,
      "pitching": 7933,
      "RealNetworks": 7934,
      "convinc": 7935,
      "LOU": 7936,
      "AKARTA": 7937,
      "knocked": 7938,
      "Mutu": 7939,
      "Hubble": 7940,
      "Vivendi": 7941,
      "Bengals": 7942,
      "luxury": 7943,
      "BU": 7944,
      "Crew": 7945,
      "Fair": 7946,
      "Gives": 7947,
      "Imp": 7948,
      "Lef": 7949,
      "Mol": 7950,
      "Nug": 7951,
      "Pop": 7952,
      "Tru": 7953,
      "fro": 7954,
      "uate": 7955,
      "emot": 7956,
      "tsun": 7957,
      "export": 7958,
      "lobe": 7959,
      "Change": 7960,
      "older": 7961,
      "Comcast": 7962,
      "struments": 7963,
      "Cons": 7964,
      "soared": 7965,
      "Beats": 7966,
      "Opposition": 7967,
      "featur": 7968,
      "asking": 7969,
      "ocket": 7970,
      "movement": 7971,
      "promote": 7972,
      "Virus": 7973,
      "combined": 7974,
      "crowded": 7975,
      "LSU": 7976,
      "arrives": 7977,
      "stood": 7978,
      "casual": 7979,
      "Lebanese": 7980,
      "Following": 7981,
      "consolid": 7982,
      "Switzerland": 7983,
      "Suzuk": 7984,
      "Cour": 7985,
      "Fast": 7986,
      "Foc": 7987,
      "Khan": 7988,
      "QB": 7989,
      "Rice": 7990,
      "finger": 7991,
      "iate": 7992,
      "nom": 7993,
      "inion": 7994,
      "acter": 7995,
      "illas": 7996,
      "beach": 7997,
      "overwhel": 7998,
      "ogue": 7999,
      "ampton": 8000,
      "igns": 8001,
      "assador": 8002,
      "Monetary": 8003,
      "intended": 8004,
      "learned": 8005,
      "suspend": 8006,
      "column": 8007,
      "normal": 8008,
      "Andreas": 8009,
      "affair": 8010,
      "Ell": 8011,
      "thinking": 8012,
      "bloody": 8013,
      "Owens": 8014,
      "curb": 8015,
      "Special": 8016,
      "Blockbuster": 8017,
      "Lenovo": 8018,
      "NATIONS": 8019,
      "Success": 8020,
      "Daim": 8021,
      "Ele": 8022,
      "JAKARTA": 8023,
      "Moun": 8024,
      "RAM": 8025,
      "fixed": 8026,
      "hiring": 8027,
      "pting": 8028,
      "enfor": 8029,
      "itely": 8030,
      "acad": 8031,
      "iga": 8032,
      "improper": 8033,
      "deter": 8034,
      "amps": 8035,
      "coordin": 8036,
      "Environment": 8037,
      "counts": 8038,
      "encing": 8039,
      "Bln": 8040,
      "Trading": 8041,
      "Only": 8042,
      "12th": 8043,
      "persu": 8044,
      "jobless": 8045,
      "peacekeepers": 8046,
      "ministry": 8047,
      "investigators": 8048,
      "experi": 8049,
      "Harvard": 8050,
      "changing": 8051,
      "PayPal": 8052,
      "representing": 8053,
      "legislat": 8054,
      "NTT": 8055,
      "materials": 8056,
      "recommend": 8057,
      "Debate": 8058,
      "Daimler": 8059,
      "59": 8060,
      "Care": 8061,
      "Cards": 8062,
      "Dies": 8063,
      "Mir": 8064,
      "SU": 8065,
      "Sale": 8066,
      "ael": 8067,
      "yield": 8068,
      "icient": 8069,
      "checks": 8070,
      "upbeat": 8071,
      "Read": 8072,
      "ishing": 8073,
      "clients": 8074,
      "unders": 8075,
      "meant": 8076,
      "warm": 8077,
      "slowed": 8078,
      "consortium": 8079,
      "nsyl": 8080,
      "billions": 8081,
      "Orders": 8082,
      "feed": 8083,
      "guards": 8084,
      "COMP": 8085,
      "breakthrough": 8086,
      "Yankee": 8087,
      "Angel": 8088,
      "Need": 8089,
      "Patrick": 8090,
      "healthy": 8091,
      "commitment": 8092,
      "Pennsyl": 8093,
      "rushing": 8094,
      "satis": 8095,
      "Munich": 8096,
      "INTC": 8097,
      "Spyware": 8098,
      "1st": 8099,
      "Core": 8100,
      "Cable": 8101,
      "Da": 8102,
      "NJ": 8103,
      "Night": 8104,
      "Qantas": 8105,
      "Town": 8106,
      "bond": 8107,
      "wider": 8108,
      "orious": 8109,
      "ento": 8110,
      "revised": 8111,
      "idays": 8112,
      "omed": 8113,
      "agenda": 8114,
      "plenty": 8115,
      "coni": 8116,
      "congress": 8117,
      "Strugg": 8118,
      "worse": 8119,
      "Fran": 8120,
      "granted": 8121,
      "rowing": 8122,
      "disarm": 8123,
      "Indies": 8124,
      "Arm": 8125,
      "Artest": 8126,
      "Trump": 8127,
      "Flu": 8128,
      "hoped": 8129,
      "aiming": 8130,
      "Markets": 8131,
      "Mao": 8132,
      "prior": 8133,
      "GOOG": 8134,
      "Compet": 8135,
      "weakness": 8136,
      "birds": 8137,
      "Ukrainian": 8138,
      "discovery": 8139,
      "Quarterly": 8140,
      "journalist": 8141,
      "refugees": 8142,
      "Eyes": 8143,
      "Taylor": 8144,
      "Fenway": 8145,
      "Pennsylvania": 8146,
      "Bir": 8147,
      "BOR": 8148,
      "Fun": 8149,
      "Hurt": 8150,
      "fal": 8151,
      "task": 8152,
      "thrown": 8153,
      "orb": 8154,
      "stir": 8155,
      "otes": 8156,
      "comment": 8157,
      "loan": 8158,
      "tran": 8159,
      "defended": 8160,
      "Marion": 8161,
      "someone": 8162,
      "Prov": 8163,
      "balance": 8164,
      "suspic": 8165,
      "stormed": 8166,
      "dropping": 8167,
      "Merrill": 8168,
      "rocked": 8169,
      "climb": 8170,
      "ICC": 8171,
      "temper": 8172,
      "Product": 8173,
      "PHIL": 8174,
      "communist": 8175,
      "folio": 8176,
      "destruction": 8177,
      "61": 8178,
      "Breed": 8179,
      "Cop": 8180,
      "LU": 8181,
      "Ov": 8182,
      "Rate": 8183,
      "YUK": 8184,
      "aer": 8185,
      "gal": 8186,
      "hire": 8187,
      "sou": 8188,
      "icate": 8189,
      "rape": 8190,
      "oph": 8191,
      "akh": 8192,
      "Ref": 8193,
      "overty": 8194,
      "priced": 8195,
      "discount": 8196,
      "Spot": 8197,
      "plea": 8198,
      "eves": 8199,
      "William": 8200,
      "Branson": 8201,
      "Poland": 8202,
      "detained": 8203,
      "tooth": 8204,
      "Investment": 8205,
      "battled": 8206,
      "Manager": 8207,
      "Eye": 8208,
      "weighed": 8209,
      "determined": 8210,
      "Circuit": 8211,
      "Square": 8212,
      "licensing": 8213,
      "heavily": 8214,
      "Fa": 8215,
      "Note": 8216,
      "Penn": 8217,
      "bold": 8218,
      "mph": 8219,
      "tiz": 8220,
      "leagues": 8221,
      "elig": 8222,
      "height": 8223,
      "agged": 8224,
      "shore": 8225,
      "overning": 8226,
      "Chips": 8227,
      "airn": 8228,
      "poison": 8229,
      "highlight": 8230,
      "ballot": 8231,
      "regime": 8232,
      "lifts": 8233,
      "lifting": 8234,
      "Profits": 8235,
      "gaining": 8236,
      "fails": 8237,
      "Access": 8238,
      "proposals": 8239,
      "Kenned": 8240,
      "swept": 8241,
      "Rockies": 8242,
      "Christian": 8243,
      "OKs": 8244,
      "seriously": 8245,
      "diplomatic": 8246,
      "definition": 8247,
      "athletes": 8248,
      "Eliot": 8249,
      "connections": 8250,
      "Machines": 8251,
      "conspiracy": 8252,
      "DAM": 8253,
      "Est": 8254,
      "Ich": 8255,
      "Less": 8256,
      "Light": 8257,
      "Orange": 8258,
      "Q3": 8259,
      "bast": 8260,
      "eor": 8261,
      "mun": 8262,
      "acre": 8263,
      "ira": 8264,
      "emiss": 8265,
      "Through": 8266,
      "brands": 8267,
      "Sean": 8268,
      "handle": 8269,
      "Guerr": 8270,
      "Trojan": 8271,
      "thent": 8272,
      "Mission": 8273,
      "TechWeb": 8274,
      "IRA": 8275,
      "Ramad": 8276,
      "Produc": 8277,
      "Hugo": 8278,
      "Mourinho": 8279,
      "Fraud": 8280,
      "MADR": 8281,
      "650": 8282,
      "ABC": 8283,
      "Gaz": 8284,
      "Pav": 8285,
      "Rates": 8286,
      "fax": 8287,
      "flaws": 8288,
      "gium": 8289,
      "jour": 8290,
      "nets": 8291,
      "escal": 8292,
      "toss": 8293,
      "Stake": 8294,
      "pricing": 8295,
      "ellow": 8296,
      "ancellor": 8297,
      "surf": 8298,
      "Weak": 8299,
      "relatives": 8300,
      "Proble": 8301,
      "Beach": 8302,
      "Gene": 8303,
      "deadliest": 8304,
      "cyber": 8305,
      "Earn": 8306,
      "demanded": 8307,
      "Syrian": 8308,
      "Belgium": 8309,
      "simply": 8310,
      "Rodrig": 8311,
      "Funds": 8312,
      "Scottish": 8313,
      "reserves": 8314,
      "destroyed": 8315,
      "pretty": 8316,
      "aggressive": 8317,
      "barrass": 8318,
      "surrounding": 8319,
      "Cathol": 8320,
      "LOUIS": 8321,
      "94": 8322,
      "Award": 8323,
      "BAR": 8324,
      "Cre": 8325,
      "Langer": 8326,
      "Mas": 8327,
      "Names": 8328,
      "Rising": 8329,
      "Slow": 8330,
      "dust": 8331,
      "fu": 8332,
      "font": 8333,
      "fossil": 8334,
      "gad": 8335,
      "native": 8336,
      "ingly": 8337,
      "tery": 8338,
      "astic": 8339,
      "kswag": 8340,
      "ounds": 8341,
      "Incre": 8342,
      "Exec": 8343,
      "ranks": 8344,
      "Ortiz": 8345,
      "signal": 8346,
      "ooks": 8347,
      "factories": 8348,
      "advoc": 8349,
      "Merger": 8350,
      "snap": 8351,
      "Hostages": 8352,
      "kicked": 8353,
      "olesale": 8354,
      "definitely": 8355,
      "Volkswag": 8356,
      "throwing": 8357,
      "conducted": 8358,
      "ranging": 8359,
      "Ernie": 8360,
      "prompted": 8361,
      "prompting": 8362,
      "Randy": 8363,
      "Protection": 8364,
      "Personal": 8365,
      "Rwanda": 8366,
      "Falcons": 8367,
      "Lynch": 8368,
      "regarding": 8369,
      "Aziz": 8370,
      "tsunami": 8371,
      "Ovitz": 8372,
      "Ichiro": 8373,
      "Volkswagen": 8374,
      "BALL": 8375,
      "Greg": 8376,
      "Toll": 8377,
      "VA": 8378,
      "jected": 8379,
      "pin": 8380,
      "sop": 8381,
      "wau": 8382,
      "orial": 8383,
      "chair": 8384,
      "amy": 8385,
      "pling": 8386,
      "Anim": 8387,
      "ucr": 8388,
      "Shr": 8389,
      "izz": 8390,
      "Netfli": 8391,
      "ARL": 8392,
      "Northwest": 8393,
      "doubts": 8394,
      "Philip": 8395,
      "Elections": 8396,
      "Berlus": 8397,
      "Musab": 8398,
      "Interest": 8399,
      "Announces": 8400,
      "Holds": 8401,
      "reveal": 8402,
      "Milwau": 8403,
      "telling": 8404,
      "Shaw": 8405,
      "Costs": 8406,
      "optimism": 8407,
      "phishing": 8408,
      "Padres": 8409,
      "assassination": 8410,
      "temporary": 8411,
      "VIEW": 8412,
      "Nuggets": 8413,
      "enforcement": 8414,
      "Kennedy": 8415,
      "Netflix": 8416,
      "Milwaukee": 8417,
      "During": 8418,
      "Files": 8419,
      "Late": 8420,
      "Laz": 8421,
      "Mill": 8422,
      "Mick": 8423,
      "Tem": 8424,
      "Yen": 8425,
      "governing": 8426,
      "hij": 8427,
      "ares": 8428,
      "attr": 8429,
      "replaced": 8430,
      "Information": 8431,
      "newratings": 8432,
      "indicated": 8433,
      "Anwar": 8434,
      "extends": 8435,
      "liber": 8436,
      "flow": 8437,
      "Worries": 8438,
      "rants": 8439,
      "recorded": 8440,
      "visits": 8441,
      "11th": 8442,
      "pushes": 8443,
      "pullout": 8444,
      "Senior": 8445,
      "survived": 8446,
      "circ": 8447,
      "quietly": 8448,
      "Treo": 8449,
      "exactly": 8450,
      "Berlusconi": 8451,
      "Bow": 8452,
      "FBI": 8453,
      "HA": 8454,
      "Master": 8455,
      "MVP": 8456,
      "Rating": 8457,
      "Vers": 8458,
      "WTA": 8459,
      "pill": 8460,
      "social": 8461,
      "ui": 8462,
      "uals": 8463,
      "starter": 8464,
      "stalled": 8465,
      "rets": 8466,
      "prominent": 8467,
      "aby": 8468,
      "spots": 8469,
      "actually": 8470,
      "brid": 8471,
      "Both": 8472,
      "guaran": 8473,
      "Cuban": 8474,
      "struggles": 8475,
      "Sett": 8476,
      "baseman": 8477,
      "robust": 8478,
      "Robinson": 8479,
      "devastating": 8480,
      "Heart": 8481,
      "Local": 8482,
      "Kir": 8483,
      "Live": 8484,
      "Ocean": 8485,
      "PLC": 8486,
      "Slam": 8487,
      "Tough": 8488,
      "Was": 8489,
      "jun": 8490,
      "pour": 8491,
      "wreck": 8492,
      "eries": 8493,
      "aron": 8494,
      "stuff": 8495,
      "reput": 8496,
      "plug": 8497,
      "resources": 8498,
      "proof": 8499,
      "intel": 8500,
      "linebacker": 8501,
      "winners": 8502,
      "ballots": 8503,
      "closure": 8504,
      "learn": 8505,
      "Prosecut": 8506,
      "mini": 8507,
      "genocide": 8508,
      "Add": 8509,
      "charging": 8510,
      "ociety": 8511,
      "competing": 8512,
      "ELD": 8513,
      "discipl": 8514,
      "boosts": 8515,
      "severe": 8516,
      "Commissioner": 8517,
      "Holmes": 8518,
      "Charlot": 8519,
      "recovered": 8520,
      "strengthen": 8521,
      "celebrate": 8522,
      "Roma": 8523,
      "PHIA": 8524,
      "WMT": 8525,
      "abducted": 8526,
      "Guidant": 8527,
      "DaimlerChrysler": 8528,
      "Charlotte": 8529,
      "58": 8530,
      "Atom": 8531,
      "BP": 8532,
      "Banks": 8533,
      "CIA": 8534,
      "Few": 8535,
      "Jen": 8536,
      "Mixed": 8537,
      "NBC": 8538,
      "P2": 8539,
      "Parm": 8540,
      "Preview": 8541,
      "Rub": 8542,
      "UTH": 8543,
      "WR": 8544,
      "WS": 8545,
      "junk": 8546,
      "kid": 8547,
      "lived": 8548,
      "inos": 8549,
      "refin": 8550,
      "adjust": 8551,
      "urging": 8552,
      "ulted": 8553,
      "shrug": 8554,
      "Str": 8555,
      "osed": 8556,
      "expands": 8557,
      "marking": 8558,
      "Arch": 8559,
      "Marathon": 8560,
      "Phones": 8561,
      "Begins": 8562,
      "Manufact": 8563,
      "threaten": 8564,
      "correct": 8565,
      "ENT": 8566,
      "insurer": 8567,
      "midfielder": 8568,
      "Sues": 8569,
      "ospace": 8570,
      "collaps": 8571,
      "49ers": 8572,
      "happened": 8573,
      "Poor": 8574,
      "newspapers": 8575,
      "Portug": 8576,
      "deployment": 8577,
      "subsidies": 8578,
      "TEH": 8579,
      "Liberty": 8580,
      "migration": 8581,
      "SiliconValley": 8582,
      "Cambodia": 8583,
      "Governor": 8584,
      "ADELPHIA": 8585,
      "PHILADELPHIA": 8586,
      "YUKOS": 8587,
      "Gib": 8588,
      "Khar": 8589,
      "MGM": 8590,
      "Qwest": 8591,
      "pages": 8592,
      "rental": 8593,
      "ture": 8594,
      "atile": 8595,
      "ita": 8596,
      "heed": 8597,
      "usually": 8598,
      "estyle": 8599,
      "sey": 8600,
      "withdrew": 8601,
      "Straw": 8602,
      "APOL": 8603,
      "disclosed": 8604,
      "engines": 8605,
      "restrict": 8606,
      "Opens": 8607,
      "minor": 8608,
      "student": 8609,
      "hamstring": 8610,
      "insurers": 8611,
      "insurgency": 8612,
      "direction": 8613,
      "Agrees": 8614,
      "detain": 8615,
      "foreigners": 8616,
      "coverage": 8617,
      "Venezuelan": 8618,
      "Malaysian": 8619,
      "houses": 8620,
      "impressive": 8621,
      "ambitions": 8622,
      "Abdul": 8623,
      "bunal": 8624,
      "Soyuz": 8625,
      "emissions": 8626,
      "Boss": 8627,
      "Dur": 8628,
      "FE": 8629,
      "Kris": 8630,
      "Myst": 8631,
      "Pope": 8632,
      "SC": 8633,
      "Som": 8634,
      "Scre": 8635,
      "ba": 8636,
      "crop": 8637,
      "gall": 8638,
      "gment": 8639,
      "iya": 8640,
      "nov": 8641,
      "intr": 8642,
      "erious": 8643,
      "thus": 8644,
      "atop": 8645,
      "ateral": 8646,
      "stakes": 8647,
      "reams": 8648,
      "ouch": 8649,
      "forth": 8650,
      "emark": 8651,
      "embr": 8652,
      "worn": 8653,
      "haven": 8654,
      "ishi": 8655,
      "portfolio": 8656,
      "landed": 8657,
      "ORT": 8658,
      "warn": 8659,
      "doubles": 8660,
      "Walker": 8661,
      "burst": 8662,
      "frame": 8663,
      "activists": 8664,
      "Louisiana": 8665,
      "sych": 8666,
      "Mexican": 8667,
      "improvement": 8668,
      "Portable": 8669,
      "pounded": 8670,
      "Santander": 8671,
      "premier": 8672,
      "laptop": 8673,
      "Experts": 8674,
      "gymnastics": 8675,
      "resistance": 8676,
      "necessary": 8677,
      "Aud": 8678,
      "Fears": 8679,
      "Ill": 8680,
      "Ol": 8681,
      "Pos": 8682,
      "Pep": 8683,
      "Rival": 8684,
      "bucks": 8685,
      "gling": 8686,
      "phase": 8687,
      "yang": 8688,
      "stant": 8689,
      "stable": 8690,
      "channel": 8691,
      "eces": 8692,
      "impose": 8693,
      "exit": 8694,
      "exporters": 8695,
      "Rejects": 8696,
      "outfielder": 8697,
      "ivir": 8698,
      "lton": 8699,
      "quarterfinals": 8700,
      "BAI": 8701,
      "stripped": 8702,
      "submarine": 8703,
      "Moham": 8704,
      "cycle": 8705,
      "roads": 8706,
      "district": 8707,
      "Talk": 8708,
      "tenham": 8709,
      "hailed": 8710,
      "mortar": 8711,
      "finishing": 8712,
      "freedom": 8713,
      "Magic": 8714,
      "Jerusal": 8715,
      "Moves": 8716,
      "replacement": 8717,
      "Tottenham": 8718,
      "Jamaica": 8719,
      "Jerusalem": 8720,
      "Hack": 8721,
      "PD": 8722,
      "Tend": 8723,
      "Want": 8724,
      "din": 8725,
      "je": 8726,
      "tend": 8727,
      "wish": 8728,
      "thro": 8729,
      "rey": 8730,
      "aying": 8731,
      "andan": 8732,
      "leagu": 8733,
      "church": 8734,
      "riage": 8735,
      "aken": 8736,
      "saving": 8737,
      "odes": 8738,
      "berts": 8739,
      "uez": 8740,
      "object": 8741,
      "fines": 8742,
      "weekly": 8743,
      "ology": 8744,
      "ubishi": 8745,
      "versus": 8746,
      "trapped": 8747,
      "Adam": 8748,
      "gotten": 8749,
      "Yanks": 8750,
      "directly": 8751,
      "popul": 8752,
      "Crash": 8753,
      "Investor": 8754,
      "questioned": 8755,
      "spokeswoman": 8756,
      "Employ": 8757,
      "LAH": 8758,
      "criticized": 8759,
      "parliamentary": 8760,
      "ography": 8761,
      "Favre": 8762,
      "GDP": 8763,
      "Mitsubishi": 8764,
      "MADRID": 8765,
      "APOLIS": 8766,
      "Backs": 8767,
      "Cli": 8768,
      "JAF": 8769,
      "Kings": 8770,
      "Rank": 8771,
      "Swe": 8772,
      "math": 8773,
      "uable": 8774,
      "zo": 8775,
      "encounter": 8776,
      "stam": 8777,
      "tered": 8778,
      "embarrass": 8779,
      "uls": 8780,
      "laid": 8781,
      "quoted": 8782,
      "asset": 8783,
      "phony": 8784,
      "intense": 8785,
      "Afee": 8786,
      "Code": 8787,
      "preview": 8788,
      "buyers": 8789,
      "bidding": 8790,
      "standings": 8791,
      "McAfee": 8792,
      "Barrel": 8793,
      "violations": 8794,
      "investigate": 8795,
      "arrests": 8796,
      "easing": 8797,
      "caution": 8798,
      "Tests": 8799,
      "hotels": 8800,
      "visitors": 8801,
      "emerge": 8802,
      "Belar": 8803,
      "packed": 8804,
      "involvement": 8805,
      "Rocket": 8806,
      "writer": 8807,
      "route": 8808,
      "malicious": 8809,
      "Suspected": 8810,
      "Freddie": 8811,
      "rapidly": 8812,
      "Zook": 8813,
      "P2P": 8814,
      "ivirus": 8815,
      "120": 8816,
      "Arist": 8817,
      "Iyad": 8818,
      "Kur": 8819,
      "Moss": 8820,
      "Said": 8821,
      "Voting": 8822,
      "Writ": 8823,
      "eg": 8824,
      "nan": 8825,
      "nes": 8826,
      "pond": 8827,
      "tender": 8828,
      "opol": 8829,
      "ongyang": 8830,
      "Should": 8831,
      "counted": 8832,
      "Forum": 8833,
      "Marine": 8834,
      "clock": 8835,
      "commod": 8836,
      "managing": 8837,
      "buyout": 8838,
      "Track": 8839,
      "draws": 8840,
      "buildings": 8841,
      "Firms": 8842,
      "analysis": 8843,
      "guns": 8844,
      "Blackburn": 8845,
      "Belgian": 8846,
      "Louisville": 8847,
      "Bombs": 8848,
      "Voters": 8849,
      "Continu": 8850,
      "Jeeves": 8851,
      "Tommy": 8852,
      "BERLIN": 8853,
      "Advance": 8854,
      "Morris": 8855,
      "royal": 8856,
      "stunning": 8857,
      "Hawks": 8858,
      "Salvation": 8859,
      "particularly": 8860,
      "Pyongyang": 8861,
      "Mountain": 8862,
      "73": 8863,
      "Fel": 8864,
      "Fur": 8865,
      "Luk": 8866,
      "Metro": 8867,
      "OD": 8868,
      "Piracy": 8869,
      "Sus": 8870,
      "Soun": 8871,
      "Terry": 8872,
      "daugh": 8873,
      "flex": 8874,
      "ln": 8875,
      "sque": 8876,
      "irty": 8877,
      "seats": 8878,
      "resort": 8879,
      "confirms": 8880,
      "istent": 8881,
      "havi": 8882,
      "Think": 8883,
      "Unix": 8884,
      "extin": 8885,
      "mont": 8886,
      "medium": 8887,
      "wouldn": 8888,
      "rought": 8889,
      "onym": 8890,
      "Clip": 8891,
      "Anderson": 8892,
      "protesters": 8893,
      "engineer": 8894,
      "IAEA": 8895,
      "pollution": 8896,
      "humanitarian": 8897,
      "NAJAF": 8898,
      "sweet": 8899,
      "shook": 8900,
      "ACC": 8901,
      "walked": 8902,
      "jointly": 8903,
      "Hitachi": 8904,
      "boycott": 8905,
      "integration": 8906,
      "Double": 8907,
      "Drops": 8908,
      "removed": 8909,
      "Venus": 8910,
      "eclipse": 8911,
      "TEHRAN": 8912,
      "115": 8913,
      "BB": 8914,
      "Clo": 8915,
      "Fool": 8916,
      "JP": 8917,
      "MR": 8918,
      "Mln": 8919,
      "Naz": 8920,
      "QL": 8921,
      "TRO": 8922,
      "Zen": 8923,
      "eager": 8924,
      "hub": 8925,
      "harm": 8926,
      "nest": 8927,
      "rical": 8928,
      "uf": 8929,
      "vital": 8930,
      "wine": 8931,
      "angry": 8932,
      "atmos": 8933,
      "isse": 8934,
      "isive": 8935,
      "unte": 8936,
      "beheaded": 8937,
      "saver": 8938,
      "abroad": 8939,
      "berth": 8940,
      "Michel": 8941,
      "contact": 8942,
      "Spending": 8943,
      "teammate": 8944,
      "Debt": 8945,
      "longest": 8946,
      "Syrac": 8947,
      "supporting": 8948,
      "Polish": 8949,
      "Description": 8950,
      "shortage": 8951,
      "volume": 8952,
      "settlements": 8953,
      "challenger": 8954,
      "Slip": 8955,
      "reveals": 8956,
      "suggesting": 8957,
      "stayed": 8958,
      "biote": 8959,
      "Trail": 8960,
      "automaker": 8961,
      "hunting": 8962,
      "casino": 8963,
      "Latin": 8964,
      "FIELD": 8965,
      "mystery": 8966,
      "Changes": 8967,
      "Qualcomm": 8968,
      "Grizz": 8969,
      "evolution": 8970,
      "Hornets": 8971,
      "intellect": 8972,
      "Aristide": 8973,
      "Souness": 8974,
      "Syracuse": 8975,
      "Aaron": 8976,
      "Fuj": 8977,
      "GI": 8978,
      "Nat": 8979,
      "Ple": 8980,
      "RB": 8981,
      "Sug": 8982,
      "Sender": 8983,
      "TW": 8984,
      "XM": 8985,
      "Yet": 8986,
      "Yug": 8987,
      "bear": 8988,
      "dot": 8989,
      "wolves": 8990,
      "stan": 8991,
      "unusual": 8992,
      "imm": 8993,
      "ighter": 8994,
      "outcome": 8995,
      "ANS": 8996,
      "header": 8997,
      "slower": 8998,
      "encia": 8999,
      "remind": 9000,
      "See": 9001,
      "Without": 9002,
      "singles": 9003,
      "seeing": 9004,
      "Bayern": 9005,
      "affected": 9006,
      "controls": 9007,
      "fewer": 9008,
      "damaged": 9009,
      "tourists": 9010,
      "commerce": 9011,
      "Pitc": 9012,
      "Regul": 9013,
      "bolster": 9014,
      "UTER": 9015,
      "omerie": 9016,
      "clinched": 9017,
      "village": 9018,
      "ravaged": 9019,
      "politicians": 9020,
      "Flood": 9021,
      "COMPUTER": 9022,
      "Grizzlies": 9023,
      "Dave": 9024,
      "Hist": 9025,
      "MB": 9026,
      "Making": 9027,
      "Sent": 9028,
      "Sie": 9029,
      "bone": 9030,
      "fare": 9031,
      "length": 9032,
      "lunar": 9033,
      "poverty": 9034,
      "ramp": 9035,
      "tact": 9036,
      "woes": 9037,
      "toum": 9038,
      "administr": 9039,
      "urgent": 9040,
      "irt": 9041,
      "raib": 9042,
      "Revolution": 9043,
      "conven": 9044,
      "convict": 9045,
      "istics": 9046,
      "ells": 9047,
      "neys": 9048,
      "scen": 9049,
      "scare": 9050,
      "Jobless": 9051,
      "ubbed": 9052,
      "cano": 9053,
      "tyco": 9054,
      "addition": 9055,
      "Adds": 9056,
      "IDG": 9057,
      "solutions": 9058,
      "Viacom": 9059,
      "equal": 9060,
      "completing": 9061,
      "suffer": 9062,
      "STER": 9063,
      "Helps": 9064,
      "happen": 9065,
      "Industries": 9066,
      "revive": 9067,
      "Lowe": 9068,
      "settles": 9069,
      "settlers": 9070,
      "flew": 9071,
      "Legal": 9072,
      "Speedway": 9073,
      "digit": 9074,
      "Stanley": 9075,
      "electricity": 9076,
      "Fleet": 9077,
      "Soren": 9078,
      "Ghraib": 9079,
      "negative": 9080,
      "Family": 9081,
      "Montgomerie": 9082,
      "Birming": 9083,
      "87": 9084,
      "BANG": 9085,
      "Fis": 9086,
      "Fri": 9087,
      "Jud": 9088,
      "Lake": 9089,
      "NV": 9090,
      "PSP": 9091,
      "cts": 9092,
      "fest": 9093,
      "hus": 9094,
      "hell": 9095,
      "tens": 9096,
      "editor": 9097,
      "elite": 9098,
      "choose": 9099,
      "Infine": 9100,
      "princ": 9101,
      "newest": 9102,
      "scam": 9103,
      "Sho": 9104,
      "Shot": 9105,
      "Islands": 9106,
      "Spur": 9107,
      "Cooper": 9108,
      "Where": 9109,
      "authent": 9110,
      "signals": 9111,
      "miners": 9112,
      "Trou": 9113,
      "explor": 9114,
      "explain": 9115,
      "enna": 9116,
      "TVs": 9117,
      "interests": 9118,
      "Maver": 9119,
      "engineering": 9120,
      "cheap": 9121,
      "eventually": 9122,
      "written": 9123,
      "symbol": 9124,
      "wonder": 9125,
      "PEG": 9126,
      "Purdue": 9127,
      "Symbian": 9128,
      "1990s": 9129,
      "Brewers": 9130,
      "concessions": 9131,
      "Maoist": 9132,
      "Breeders": 9133,
      "Pitcairn": 9134,
      "Siebel": 9135,
      "Sorenstam": 9136,
      "Birmingham": 9137,
      "Infineon": 9138,
      "Gang": 9139,
      "HS": 9140,
      "Jona": 9141,
      "RIM": 9142,
      "Rovers": 9143,
      "Sr": 9144,
      "gift": 9145,
      "hoy": 9146,
      "ipe": 9147,
      "rent": 9148,
      "tickets": 9149,
      "vari": 9150,
      "idency": 9151,
      "elie": 9152,
      "raids": 9153,
      "apters": 9154,
      "shape": 9155,
      "oked": 9156,
      "workforce": 9157,
      "rives": 9158,
      "surging": 9159,
      "Cole": 9160,
      "Presidential": 9161,
      "entering": 9162,
      "1980": 9163,
      "minority": 9164,
      "Once": 9165,
      "Too": 9166,
      "swapping": 9167,
      "Agree": 9168,
      "GHz": 9169,
      "Missile": 9170,
      "appealed": 9171,
      "Stars": 9172,
      "cheaper": 9173,
      "captors": 9174,
      "boxing": 9175,
      "availability": 9176,
      "Valencia": 9177,
      "robot": 9178,
      "hydro": 9179,
      "recalled": 9180,
      "patches": 9181,
      "Samarra": 9182,
      "Blasts": 9183,
      "ordinary": 9184,
      "ethnic": 9185,
      "monitoring": 9186,
      "JOSE": 9187,
      "Optim": 9188,
      "Rafael": 9189,
      "triggered": 9190,
      "exhibition": 9191,
      "Suzuki": 9192,
      "Focus": 9193,
      "COMPUTERWORLD": 9194,
      "Jonathan": 9195,
      "900": 9196,
      "BAL": 9197,
      "EBay": 9198,
      "Gal": 9199,
      "Juan": 9200,
      "Led": 9201,
      "Mig": 9202,
      "Nad": 9203,
      "Pitch": 9204,
      "Poss": 9205,
      "bust": 9206,
      "km": 9207,
      "lure": 9208,
      "pit": 9209,
      "picks": 9210,
      "tall": 9211,
      "enable": 9212,
      "requir": 9213,
      "Instruments": 9214,
      "itsch": 9215,
      "conced": 9216,
      "overcome": 9217,
      "permission": 9218,
      "indicted": 9219,
      "irez": 9220,
      "insists": 9221,
      "retain": 9222,
      "notice": 9223,
      "undis": 9224,
      "anged": 9225,
      "Alaska": 9226,
      "Arena": 9227,
      "relatively": 9228,
      "feeling": 9229,
      "UNI": 9230,
      "films": 9231,
      "hander": 9232,
      "limits": 9233,
      "IAA": 9234,
      "Surv": 9235,
      "spotlight": 9236,
      "championships": 9237,
      "shoot": 9238,
      "Ramirez": 9239,
      "omberg": 9240,
      "animals": 9241,
      "teenager": 9242,
      "Retailers": 9243,
      "Phillips": 9244,
      "repeated": 9245,
      "replacing": 9246,
      "eliminate": 9247,
      "Bloomberg": 9248,
      "Kidnappers": 9249,
      "Limited": 9250,
      "occupied": 9251,
      "steroids": 9252,
      "plunged": 9253,
      "Injured": 9254,
      "Bruce": 9255,
      "Mortgage": 9256,
      "astronomers": 9257,
      "Shawn": 9258,
      "Atomic": 9259,
      "AID": 9260,
      "Freed": 9261,
      "KS": 9262,
      "Mey": 9263,
      "Ox": 9264,
      "Puts": 9265,
      "Paper": 9266,
      "PORT": 9267,
      "Sex": 9268,
      "SER": 9269,
      "SQL": 9270,
      "Using": 9271,
      "sometimes": 9272,
      "trees": 9273,
      "stell": 9274,
      "asy": 9275,
      "chase": 9276,
      "chosen": 9277,
      "otape": 9278,
      "suite": 9279,
      "gtime": 9280,
      "buff": 9281,
      "defender": 9282,
      "understand": 9283,
      "Begin": 9284,
      "standoff": 9285,
      "studio": 9286,
      "Schwar": 9287,
      "deton": 9288,
      "advances": 9289,
      "Retire": 9290,
      "Troy": 9291,
      "fueled": 9292,
      "resigns": 9293,
      "complaint": 9294,
      "Royals": 9295,
      "significantly": 9296,
      "surprised": 9297,
      "gathering": 9298,
      "conservative": 9299,
      "erupted": 9300,
      "Likely": 9301,
      "Mickelson": 9302,
      "Fidel": 9303,
      "Looks": 9304,
      "MONT": 9305,
      "Ral": 9306,
      "Saints": 9307,
      "caf": 9308,
      "greet": 9309,
      "jets": 9310,
      "inated": 9311,
      "remark": 9312,
      "rained": 9313,
      "Rev": 9314,
      "umes": 9315,
      "afford": 9316,
      "eping": 9317,
      "blade": 9318,
      "pharmaceutical": 9319,
      "retreat": 9320,
      "disrup": 9321,
      "expenses": 9322,
      "slump": 9323,
      "Fort": 9324,
      "defends": 9325,
      "planets": 9326,
      "dealers": 9327,
      "TOWN": 9328,
      "SEPT": 9329,
      "rivalry": 9330,
      "casting": 9331,
      "Maur": 9332,
      "certainly": 9333,
      "Targets": 9334,
      "FORD": 9335,
      "required": 9336,
      "updated": 9337,
      "grabbed": 9338,
      "various": 9339,
      "acknowledged": 9340,
      "Lawyers": 9341,
      "permanent": 9342,
      "ulkar": 9343,
      "Ec": 9344,
      "Gy": 9345,
      "Hav": 9346,
      "Nine": 9347,
      "PP": 9348,
      "Pier": 9349,
      "TX": 9350,
      "Wolf": 9351,
      "Yud": 9352,
      "mare": 9353,
      "nas": 9354,
      "tensions": 9355,
      "uing": 9356,
      "zed": 9357,
      "unable": 9358,
      "unrest": 9359,
      "verge": 9360,
      "behavi": 9361,
      "rescu": 9362,
      "Strate": 9363,
      "endant": 9364,
      "Chapter": 9365,
      "peak": 9366,
      "nington": 9367,
      "mons": 9368,
      "tribut": 9369,
      "Secure": 9370,
      "Opter": 9371,
      "publicly": 9372,
      "hardt": 9373,
      "Among": 9374,
      "pursuit": 9375,
      "FedEx": 9376,
      "pulls": 9377,
      "pulling": 9378,
      "baby": 9379,
      "doubleclick": 9380,
      "Antar": 9381,
      "Timber": 9382,
      "celebrated": 9383,
      "battling": 9384,
      "agreeing": 9385,
      "Alexander": 9386,
      "Releases": 9387,
      "Movie": 9388,
      "judges": 9389,
      "sponsored": 9390,
      "MLB": 9391,
      "Private": 9392,
      "chemical": 9393,
      "Earnhardt": 9394,
      "Rodriguez": 9395,
      "Catholic": 9396,
      "Belarus": 9397,
      "Clippers": 9398,
      "Fischer": 9399,
      "BHP": 9400,
      "Ef": 9401,
      "Ep": 9402,
      "Ful": 9403,
      "Hil": 9404,
      "Ian": 9405,
      "Main": 9406,
      "PO": 9407,
      "Pension": 9408,
      "Rights": 9409,
      "Sac": 9410,
      "Tropical": 9411,
      "centers": 9412,
      "divers": 9413,
      "hundred": 9414,
[...]
